#ifndef NHUNG_MODEL_H
#define NHUNG_MODEL_H

#include <pgmspace.h>

const unsigned int nhung_model_len = 8288;
const unsigned char nhung_model[] PROGMEM = {
 0x1c, 0x00, 0x00, 0x00, 0x54, 0x46, 0x4c, 0x33, 0x14, 0x00, 0x20, 0x00,
  0x1c, 0x00, 0x18, 0x00, 0x14, 0x00, 0x10, 0x00, 0x0c, 0x00, 0x00, 0x00,
  0x08, 0x00, 0x04, 0x00, 0x14, 0x00, 0x00, 0x00, 0x1c, 0x00, 0x00, 0x00,
  0x8c, 0x00, 0x00, 0x00, 0x0c, 0x01, 0x00, 0x00, 0xf4, 0x0d, 0x00, 0x00,
  0x04, 0x0e, 0x00, 0x00, 0xc8, 0x1f, 0x00, 0x00, 0x03, 0x00, 0x00, 0x00,
  0x01, 0x00, 0x00, 0x00, 0x04, 0x00, 0x00, 0x00, 0x46, 0xf1, 0xff, 0xff,
  0x0c, 0x00, 0x00, 0x00, 0x1c, 0x00, 0x00, 0x00, 0x3c, 0x00, 0x00, 0x00,
  0x0f, 0x00, 0x00, 0x00, 0x73, 0x65, 0x72, 0x76, 0x69, 0x6e, 0x67, 0x5f,
  0x64, 0x65, 0x66, 0x61, 0x75, 0x6c, 0x74, 0x00, 0x01, 0x00, 0x00, 0x00,
  0x04, 0x00, 0x00, 0x00, 0x68, 0xff, 0xff, 0xff, 0x0d, 0x00, 0x00, 0x00,
  0x04, 0x00, 0x00, 0x00, 0x08, 0x00, 0x00, 0x00, 0x6f, 0x75, 0x74, 0x70,
  0x75, 0x74, 0x5f, 0x30, 0x00, 0x00, 0x00, 0x00, 0x01, 0x00, 0x00, 0x00,
  0x04, 0x00, 0x00, 0x00, 0x92, 0xf2, 0xff, 0xff, 0x04, 0x00, 0x00, 0x00,
  0x0f, 0x00, 0x00, 0x00, 0x6b, 0x65, 0x72, 0x61, 0x73, 0x5f, 0x74, 0x65,
  0x6e, 0x73, 0x6f, 0x72, 0x5f, 0x32, 0x31, 0x00, 0x03, 0x00, 0x00, 0x00,
  0x5c, 0x00, 0x00, 0x00, 0x2c, 0x00, 0x00, 0x00, 0x04, 0x00, 0x00, 0x00,
  0xb8, 0xff, 0xff, 0xff, 0x11, 0x00, 0x00, 0x00, 0x04, 0x00, 0x00, 0x00,
  0x13, 0x00, 0x00, 0x00, 0x43, 0x4f, 0x4e, 0x56, 0x45, 0x52, 0x53, 0x49,
  0x4f, 0x4e, 0x5f, 0x4d, 0x45, 0x54, 0x41, 0x44, 0x41, 0x54, 0x41, 0x00,
  0xdc, 0xff, 0xff, 0xff, 0x10, 0x00, 0x00, 0x00, 0x04, 0x00, 0x00, 0x00,
  0x13, 0x00, 0x00, 0x00, 0x6d, 0x69, 0x6e, 0x5f, 0x72, 0x75, 0x6e, 0x74,
  0x69, 0x6d, 0x65, 0x5f, 0x76, 0x65, 0x72, 0x73, 0x69, 0x6f, 0x6e, 0x00,
  0x08, 0x00, 0x0c, 0x00, 0x08, 0x00, 0x04, 0x00, 0x08, 0x00, 0x00, 0x00,
  0x0f, 0x00, 0x00, 0x00, 0x04, 0x00, 0x00, 0x00, 0x13, 0x00, 0x00, 0x00,
  0x6d, 0x69, 0x6e, 0x5f, 0x72, 0x75, 0x6e, 0x74, 0x69, 0x6d, 0x65, 0x5f,
  0x76, 0x65, 0x72, 0x73, 0x69, 0x6f, 0x6e, 0x00, 0x12, 0x00, 0x00, 0x00,
  0xe4, 0x0c, 0x00, 0x00, 0xdc, 0x0c, 0x00, 0x00, 0xc8, 0x0c, 0x00, 0x00,
  0xa8, 0x0c, 0x00, 0x00, 0x8c, 0x0c, 0x00, 0x00, 0xbc, 0x0b, 0x00, 0x00,
  0xac, 0x0a, 0x00, 0x00, 0x9c, 0x02, 0x00, 0x00, 0x0c, 0x02, 0x00, 0x00,
  0xdc, 0x00, 0x00, 0x00, 0xd4, 0x00, 0x00, 0x00, 0xcc, 0x00, 0x00, 0x00,
  0xc4, 0x00, 0x00, 0x00, 0xbc, 0x00, 0x00, 0x00, 0xb4, 0x00, 0x00, 0x00,
  0x94, 0x00, 0x00, 0x00, 0x74, 0x00, 0x00, 0x00, 0x04, 0x00, 0x00, 0x00,
  0x7e, 0xf3, 0xff, 0xff, 0x04, 0x00, 0x00, 0x00, 0x60, 0x00, 0x00, 0x00,
  0x0c, 0x00, 0x00, 0x00, 0x08, 0x00, 0x0e, 0x00, 0x08, 0x00, 0x04, 0x00,
  0x08, 0x00, 0x00, 0x00, 0x10, 0x00, 0x00, 0x00, 0x28, 0x00, 0x00, 0x00,
  0x00, 0x00, 0x06, 0x00, 0x08, 0x00, 0x04, 0x00, 0x06, 0x00, 0x00, 0x00,
  0x04, 0x00, 0x00, 0x00, 0x01, 0x00, 0x00, 0x00, 0xeb, 0x03, 0x00, 0x00,
  0x0c, 0x00, 0x18, 0x00, 0x14, 0x00, 0x10, 0x00, 0x0c, 0x00, 0x04, 0x00,
  0x0c, 0x00, 0x00, 0x00, 0x88, 0x6e, 0xa9, 0x75, 0x72, 0xc6, 0xeb, 0x8f,
  0x02, 0x00, 0x00, 0x00, 0x02, 0x00, 0x00, 0x00, 0x04, 0x00, 0x00, 0x00,
  0x06, 0x00, 0x00, 0x00, 0x32, 0x2e, 0x31, 0x38, 0x2e, 0x30, 0x00, 0x00,
  0xea, 0xf3, 0xff, 0xff, 0x04, 0x00, 0x00, 0x00, 0x10, 0x00, 0x00, 0x00,
  0x00, 0x00, 0x00, 0x00, 0x00, 0x00, 0x00, 0x00, 0x00, 0x00, 0x00, 0x00,
  0x00, 0x00, 0x00, 0x00, 0x06, 0xf4, 0xff, 0xff, 0x04, 0x00, 0x00, 0x00,
  0x10, 0x00, 0x00, 0x00, 0x31, 0x2e, 0x31, 0x34, 0x2e, 0x30, 0x00, 0x00,
  0x00, 0x00, 0x00, 0x00, 0x00, 0x00, 0x00, 0x00, 0xf8, 0xe2, 0xff, 0xff,
  0xfc, 0xe2, 0xff, 0xff, 0x00, 0xe3, 0xff, 0xff, 0x04, 0xe3, 0xff, 0xff,
  0x08, 0xe3, 0xff, 0xff, 0x36, 0xf4, 0xff, 0xff, 0x04, 0x00, 0x00, 0x00,
  0x20, 0x01, 0x00, 0x00, 0xfc, 0x2f, 0x7f, 0xda, 0x1b, 0x72, 0xd4, 0x16,
  0x74, 0xf6, 0xe9, 0x1a, 0x42, 0x7f, 0x30, 0x39, 0xf0, 0x06, 0xcf, 0x66,
  0x5a, 0xc4, 0xba, 0x7f, 0x4f, 0xc9, 0x14, 0xd8, 0x62, 0x21, 0x81, 0xde,
  0xd6, 0xc2, 0x31, 0x27, 0x4d, 0x48, 0x81, 0x11, 0x23, 0x8a, 0xfb, 0xdf,
  0xae, 0xd6, 0x81, 0xba, 0x41, 0xdd, 0x2e, 0xaf, 0xec, 0xf1, 0xae, 0x8f,
  0x30, 0x81, 0x95, 0x6c, 0xbe, 0x8f, 0xcc, 0xab, 0xa8, 0xfb, 0x18, 0x28,
  0x7f, 0x72, 0x37, 0x02, 0xcf, 0xb5, 0x11, 0x33, 0x2f, 0xba, 0x81, 0xc7,
  0xe8, 0xe3, 0x63, 0x43, 0x4b, 0x51, 0x37, 0x1e, 0x09, 0x81, 0x96, 0xd5,
  0xd2, 0x1b, 0xee, 0x7a, 0x81, 0xf3, 0x3d, 0x67, 0x30, 0x37, 0xc0, 0x6a,
  0x39, 0xd2, 0x8d, 0x7f, 0x18, 0x45, 0xf9, 0x15, 0xe6, 0xa0, 0x7f, 0x0f,
  0x06, 0xd9, 0x6a, 0xcc, 0x2e, 0x53, 0x7f, 0x60, 0xe8, 0x30, 0x22, 0x5d,
  0x4d, 0x1e, 0xe1, 0xef, 0xa6, 0x0b, 0x7f, 0xea, 0xec, 0xc9, 0x7f, 0x29,
  0x50, 0xc2, 0x5e, 0xc7, 0x39, 0xb3, 0xd2, 0x81, 0x11, 0x64, 0x69, 0x99,
  0xe9, 0xf8, 0x99, 0xce, 0x40, 0x05, 0x21, 0x7f, 0x5b, 0x6d, 0x67, 0x08,
  0x40, 0xd5, 0x59, 0x48, 0x00, 0x7f, 0xb1, 0xaf, 0x66, 0xf9, 0x34, 0xe3,
  0x9b, 0x49, 0x8d, 0x7f, 0xe9, 0xb5, 0xeb, 0x3c, 0x2d, 0xb3, 0x7f, 0x0a,
  0x1a, 0xe9, 0xc8, 0xc5, 0x81, 0x4e, 0xcc, 0x4d, 0xb0, 0xc1, 0x8e, 0x57,
  0x79, 0x52, 0x2f, 0x12, 0x1b, 0x7f, 0x85, 0x5f, 0x1e, 0x81, 0xc7, 0x1a,
  0xa6, 0x35, 0xbc, 0xc6, 0xb9, 0xaa, 0xd9, 0x2d, 0xea, 0x68, 0x7f, 0x21,
  0x49, 0x71, 0xd1, 0xea, 0x16, 0xea, 0x55, 0xd1, 0xdf, 0x7f, 0xf9, 0x18,
  0xba, 0x3f, 0x4f, 0x96, 0x81, 0xe9, 0x09, 0x11, 0x13, 0x7f, 0x55, 0xf6,
  0x44, 0xb9, 0xa4, 0xa8, 0x2e, 0x19, 0xf9, 0xd0, 0xf4, 0xc9, 0x7f, 0xee,
  0xc7, 0x35, 0x1a, 0x05, 0xe9, 0x33, 0x04, 0xaa, 0xfe, 0x81, 0x11, 0x36,
  0xb0, 0x67, 0x81, 0xcf, 0xf3, 0xa9, 0x14, 0x89, 0xb5, 0x15, 0x7f, 0x05,
  0xad, 0x78, 0x4e, 0x38, 0x62, 0xf5, 0xff, 0xff, 0x04, 0x00, 0x00, 0x00,
  0x80, 0x00, 0x00, 0x00, 0x4b, 0xfb, 0xff, 0xff, 0xa8, 0xf8, 0xff, 0xff,
  0x03, 0x00, 0x00, 0x00, 0xab, 0xf5, 0xff, 0xff, 0x98, 0xfa, 0xff, 0xff,
  0x6a, 0xfe, 0xff, 0xff, 0xd3, 0xf4, 0xff, 0xff, 0x5a, 0x03, 0x00, 0x00,
  0x16, 0xf8, 0xff, 0xff, 0x37, 0x00, 0x00, 0x00, 0x57, 0xfa, 0xff, 0xff,
  0xab, 0x01, 0x00, 0x00, 0x91, 0x06, 0x00, 0x00, 0x60, 0x08, 0x00, 0x00,
  0xea, 0x04, 0x00, 0x00, 0x3c, 0xf9, 0xff, 0xff, 0xfb, 0xfd, 0xff, 0xff,
  0xf4, 0xf5, 0xff, 0xff, 0xf3, 0x02, 0x00, 0x00, 0xa3, 0xfd, 0xff, 0xff,
  0x5f, 0x08, 0x00, 0x00, 0x03, 0xef, 0xff, 0xff, 0x1e, 0x01, 0x00, 0x00,
  0xe9, 0xf4, 0xff, 0xff, 0xb9, 0xfa, 0xff, 0xff, 0x5a, 0xf6, 0xff, 0xff,
  0xb8, 0xfc, 0xff, 0xff, 0xf7, 0xfe, 0xff, 0xff, 0x41, 0x00, 0x00, 0x00,
  0x46, 0xf3, 0xff, 0xff, 0x4e, 0x02, 0x00, 0x00, 0x91, 0x04, 0x00, 0x00,
  0xee, 0xf5, 0xff, 0xff, 0x04, 0x00, 0x00, 0x00, 0x00, 0x08, 0x00, 0x00,
  0xf1, 0x25, 0xad, 0xdd, 0xcd, 0x69, 0x1d, 0xdd, 0x10, 0xd0, 0x23, 0xb8,
  0x06, 0x82, 0xef, 0xc1, 0xc7, 0xae, 0xb4, 0x8e, 0xa9, 0xb7, 0xe0, 0xe9,
  0xf0, 0x2a, 0x7f, 0x0f, 0xcb, 0x31, 0x14, 0xd0, 0x4a, 0x3b, 0x0d, 0xae,
  0x9f, 0x31, 0x56, 0xc6, 0xbf, 0xb9, 0xb4, 0x48, 0x4b, 0xd3, 0x09, 0x9e,
  0xc0, 0x5e, 0xdb, 0xfc, 0xb5, 0x9c, 0xf5, 0x81, 0xe8, 0xf9, 0xfc, 0x37,
  0xd9, 0xff, 0x3c, 0xd3, 0x04, 0x51, 0x54, 0x1f, 0xd3, 0xd3, 0xa5, 0xf0,
  0xaf, 0x9a, 0x4e, 0xf0, 0xfa, 0x2e, 0x7f, 0x92, 0x60, 0x2f, 0xd4, 0xe6,
  0x6c, 0x43, 0xc2, 0x9d, 0x69, 0x1d, 0xdc, 0x2d, 0xb7, 0x24, 0x2e, 0xd0,
  0xb5, 0xe1, 0xe2, 0xdb, 0xbe, 0x0a, 0x2c, 0xf2, 0xc2, 0x26, 0x8b, 0xd1,
  0xb7, 0xe0, 0xa1, 0x55, 0xa9, 0x87, 0x51, 0x93, 0x2b, 0xae, 0x94, 0x28,
  0x4c, 0x60, 0xba, 0xbf, 0xdd, 0xc7, 0xa5, 0x81, 0xf6, 0x27, 0x58, 0x38,
  0xc9, 0x37, 0x51, 0xac, 0xf1, 0xc9, 0xac, 0x27, 0xd5, 0x97, 0x2a, 0x22,
  0x13, 0x71, 0x36, 0x3a, 0x10, 0x90, 0x04, 0x32, 0x49, 0xfa, 0xd6, 0x6e,
  0x2e, 0xdc, 0x7f, 0xca, 0xb3, 0x3d, 0x12, 0xd8, 0xf8, 0xd9, 0x81, 0xbd,
  0xfc, 0x3a, 0x0d, 0x86, 0x66, 0xd6, 0x14, 0x5d, 0xd7, 0xd2, 0x30, 0x41,
  0xbc, 0x35, 0x1d, 0x4b, 0xbc, 0x2a, 0xe3, 0x9f, 0x28, 0xdb, 0x0b, 0x5a,
  0xe3, 0xdc, 0x1d, 0x2d, 0x07, 0x81, 0x86, 0xf5, 0xbb, 0x6d, 0xcc, 0x3d,
  0xf4, 0xd8, 0x30, 0x59, 0x2c, 0xd5, 0x5f, 0xf1, 0xbb, 0xba, 0xd3, 0xc8,
  0xd9, 0xcd, 0x51, 0x08, 0xcc, 0xf9, 0xb1, 0x3b, 0xae, 0xd2, 0xc6, 0x1d,
  0xb4, 0x1e, 0x12, 0xdf, 0x45, 0x25, 0xfb, 0xbe, 0x1d, 0xcf, 0x9d, 0x2e,
  0xfe, 0x26, 0xe0, 0xde, 0x3f, 0xf0, 0xdd, 0x7f, 0xf3, 0xf3, 0x12, 0x09,
  0x11, 0xcb, 0x17, 0x18, 0xc3, 0x04, 0x11, 0x42, 0x29, 0xcb, 0x62, 0xce,
  0x2c, 0x17, 0xc9, 0xae, 0x81, 0xca, 0xd4, 0x49, 0x1e, 0x8d, 0xa5, 0x35,
  0xc5, 0x61, 0xee, 0xe4, 0x05, 0x0a, 0x0d, 0xc4, 0xb5, 0x02, 0xdd, 0xe4,
  0xef, 0xcd, 0xdf, 0x32, 0xc5, 0x0c, 0xb5, 0xa7, 0x26, 0x11, 0x0b, 0xa2,
  0x50, 0x33, 0xc6, 0x10, 0x4a, 0x24, 0x61, 0xf5, 0x81, 0x3b, 0x1f, 0x41,
  0xd1, 0xbe, 0x67, 0xed, 0x10, 0xd8, 0xff, 0xc1, 0x24, 0xda, 0xe4, 0x32,
  0x2f, 0x7f, 0x1b, 0xb1, 0x26, 0x20, 0x65, 0x2a, 0x14, 0x20, 0xb7, 0xdd,
  0xb7, 0xea, 0x13, 0xb8, 0xfe, 0xdf, 0x4f, 0x5d, 0xd6, 0xc9, 0xc4, 0xd3,
  0xdc, 0x53, 0xef, 0x03, 0xc9, 0xb8, 0x16, 0x00, 0x02, 0x2c, 0x6a, 0x38,
  0x08, 0x81, 0x13, 0x4c, 0xf9, 0xfd, 0x1c, 0x83, 0xd8, 0xce, 0x9b, 0x1e,
  0xff, 0x08, 0x88, 0xe3, 0xbc, 0x2e, 0xe4, 0xcd, 0xed, 0xa2, 0xe4, 0x33,
  0x27, 0xf3, 0x0e, 0x37, 0xbf, 0x8a, 0x91, 0x34, 0x89, 0x1d, 0x12, 0x36,
  0x13, 0xfc, 0x3a, 0xcf, 0xf2, 0x2e, 0xf9, 0xfa, 0xbf, 0x81, 0xf1, 0x98,
  0xe1, 0xe3, 0x37, 0xef, 0xa9, 0xe9, 0xc8, 0x0a, 0x53, 0x06, 0x7f, 0x06,
  0x07, 0xc9, 0xdc, 0x0e, 0x27, 0x2a, 0x41, 0xe5, 0xed, 0x70, 0x16, 0x0f,
  0xcd, 0xff, 0x03, 0x35, 0x21, 0x0b, 0xce, 0x2f, 0x05, 0x1a, 0xbd, 0x21,
  0x30, 0xf2, 0x59, 0xfa, 0xe0, 0xb0, 0x13, 0x53, 0xe3, 0xc4, 0x12, 0x01,
  0x17, 0xb0, 0x9a, 0x12, 0xce, 0x81, 0xf9, 0x46, 0x9e, 0xa3, 0x28, 0x1f,
  0x00, 0x52, 0xbd, 0x74, 0x85, 0xf0, 0xe8, 0xbc, 0x38, 0x22, 0xdf, 0xfa,
  0x01, 0xf1, 0xba, 0xd8, 0xea, 0xfb, 0x2a, 0xfc, 0x25, 0xd4, 0x25, 0xfa,
  0x35, 0xcc, 0xfe, 0x46, 0xf1, 0xb3, 0x00, 0xa3, 0xeb, 0x04, 0x38, 0x3c,
  0x2a, 0xb9, 0xb9, 0xba, 0x3a, 0x7f, 0x17, 0x22, 0x16, 0xf8, 0xf8, 0x4b,
  0xe6, 0x81, 0xaa, 0xc8, 0xf4, 0x33, 0xf2, 0xe6, 0xd4, 0x02, 0x39, 0x4a,
  0xce, 0xfe, 0x09, 0x03, 0x8f, 0x06, 0x15, 0x25, 0xa8, 0xa8, 0xd6, 0x0c,
  0xcc, 0x2e, 0xb0, 0xbd, 0xc2, 0xdc, 0xea, 0xe6, 0x38, 0xf4, 0xd5, 0xe0,
  0xc3, 0x19, 0x81, 0xdd, 0x2c, 0x52, 0xcb, 0xd0, 0xa3, 0x4b, 0xf6, 0xe7,
  0x3a, 0xbc, 0xfb, 0x14, 0x34, 0x1c, 0xfc, 0xb7, 0x74, 0x02, 0xe9, 0x3b,
  0xba, 0xc6, 0xfe, 0x20, 0xe0, 0x64, 0xfc, 0xc4, 0x7f, 0xee, 0xb4, 0xf2,
  0xbb, 0xca, 0x9a, 0xce, 0x12, 0xd6, 0xc8, 0xdb, 0x0e, 0x3b, 0xe9, 0x04,
  0x24, 0xe4, 0x2b, 0x38, 0xda, 0x1a, 0x26, 0xb5, 0x3a, 0x21, 0x65, 0x2a,
  0xfa, 0x0b, 0x1e, 0x11, 0x81, 0xb0, 0xc4, 0x18, 0x15, 0xfc, 0x31, 0x07,
  0xe2, 0xdd, 0xe2, 0x2d, 0x74, 0x2d, 0x10, 0x05, 0x44, 0xea, 0xa2, 0x0c,
  0x24, 0x8f, 0x18, 0x3b, 0x07, 0xaa, 0xfb, 0x05, 0x6b, 0x98, 0x74, 0x92,
  0xf7, 0x3e, 0x2e, 0xb6, 0xa5, 0x07, 0x26, 0x40, 0xfa, 0x95, 0x5a, 0x11,
  0xdf, 0x0c, 0x2c, 0x64, 0x81, 0xae, 0xc7, 0xb6, 0xed, 0x52, 0xe6, 0x2a,
  0xfd, 0x00, 0x31, 0x68, 0x48, 0x47, 0x0c, 0x81, 0x02, 0xfa, 0xc1, 0xc6,
  0x27, 0xd9, 0x9a, 0x19, 0x21, 0x0c, 0xa4, 0xc7, 0x86, 0x20, 0x20, 0x27,
  0x11, 0xce, 0xd7, 0x92, 0xdb, 0x76, 0xd9, 0x1c, 0x5e, 0x0a, 0x2b, 0x61,
  0xe2, 0xb3, 0xce, 0xae, 0x81, 0xbd, 0x72, 0xb9, 0xec, 0x78, 0x1d, 0xe6,
  0xf0, 0xef, 0xfc, 0x08, 0xc6, 0xdb, 0xda, 0xab, 0x4d, 0xaa, 0x7c, 0xbf,
  0xbf, 0xda, 0xa7, 0x24, 0x03, 0xd2, 0xe8, 0x1a, 0xde, 0xc3, 0xfa, 0xcc,
  0x31, 0x49, 0x9f, 0xab, 0x2a, 0x7f, 0xbe, 0x60, 0x8e, 0x18, 0xf6, 0xd7,
  0xff, 0x3b, 0x33, 0x20, 0x25, 0xc6, 0xfb, 0xed, 0x3b, 0x1f, 0xbf, 0x17,
  0xee, 0x42, 0x60, 0xdc, 0xbf, 0xc8, 0x18, 0x43, 0xcc, 0xbb, 0x4a, 0x37,
  0x36, 0xfd, 0x49, 0xec, 0x68, 0x11, 0x6e, 0x5b, 0x26, 0x95, 0x79, 0x81,
  0x54, 0xf4, 0x1b, 0xff, 0xd7, 0xd2, 0xcf, 0xca, 0x28, 0x25, 0xc8, 0xe0,
  0x3a, 0x92, 0xd1, 0xc2, 0x59, 0x67, 0x96, 0x1f, 0x91, 0x84, 0xab, 0x21,
  0xb2, 0x54, 0x25, 0x0c, 0x81, 0x35, 0xc2, 0x74, 0xfc, 0x20, 0xed, 0xf1,
  0x18, 0x60, 0xb3, 0xc3, 0xc2, 0xff, 0x25, 0xe0, 0xab, 0x79, 0xc1, 0x3b,
  0xc7, 0x3b, 0x90, 0xbe, 0x76, 0xee, 0x2d, 0x3f, 0x48, 0xba, 0xb4, 0x0e,
  0xf6, 0x14, 0xff, 0xe0, 0x25, 0x30, 0xd7, 0xae, 0x7f, 0x90, 0xd4, 0x51,
  0x81, 0x05, 0xec, 0x10, 0x24, 0x30, 0xc5, 0xb2, 0x04, 0x22, 0xf7, 0xab,
  0x76, 0xf8, 0x95, 0xb0, 0x40, 0xf7, 0x07, 0x33, 0x39, 0x3d, 0xdc, 0x2e,
  0xc4, 0xcb, 0xfb, 0x0d, 0x39, 0x4d, 0xd7, 0xbe, 0x14, 0xc1, 0xfb, 0xad,
  0xef, 0x44, 0x74, 0x23, 0x9d, 0xc6, 0x1f, 0xde, 0xd9, 0x22, 0xcf, 0xc8,
  0x3d, 0xb0, 0xde, 0x81, 0x21, 0x22, 0xc4, 0x3c, 0xe8, 0x5d, 0x02, 0x6f,
  0x5e, 0xdf, 0xbf, 0xe0, 0x81, 0x37, 0xd5, 0xe8, 0x2b, 0x23, 0x15, 0xf5,
  0xa5, 0x18, 0x19, 0x9f, 0x2c, 0x4b, 0xcf, 0x18, 0x8f, 0x9e, 0xf6, 0xae,
  0x93, 0x49, 0x1f, 0xdf, 0x11, 0xec, 0x8d, 0xeb, 0x4a, 0x66, 0xc7, 0xcc,
  0x40, 0xb1, 0xbb, 0xee, 0xa2, 0x0a, 0x1f, 0x84, 0x3a, 0x01, 0x64, 0x3a,
  0x3a, 0x22, 0xd3, 0x4f, 0xaf, 0x2c, 0x3f, 0x95, 0x81, 0x29, 0x11, 0x2e,
  0xcd, 0xea, 0xcd, 0x0f, 0xfb, 0x3b, 0xd4, 0xb4, 0x3b, 0x20, 0xb4, 0x36,
  0x1e, 0x93, 0xe5, 0xf2, 0x78, 0xd8, 0x65, 0x15, 0xad, 0x17, 0xbb, 0xbd,
  0x9c, 0x9e, 0xf1, 0x07, 0x00, 0x20, 0xc8, 0x99, 0x2d, 0xc5, 0x62, 0x81,
  0xec, 0xcb, 0x05, 0xec, 0x58, 0xc8, 0xf2, 0xde, 0x29, 0x3f, 0x35, 0x81,
  0x19, 0xc7, 0xd7, 0xb4, 0xe2, 0xcd, 0x48, 0x2d, 0xa2, 0x37, 0x59, 0x27,
  0xdb, 0xe9, 0x3e, 0x07, 0x3b, 0xbd, 0x4c, 0x90, 0xfe, 0x16, 0xa4, 0x26,
  0x78, 0x7f, 0x7f, 0xd9, 0xa8, 0xaf, 0x99, 0xaf, 0x06, 0xbc, 0x43, 0xb8,
  0x6f, 0xee, 0x53, 0x12, 0x7e, 0x09, 0xbc, 0x7c, 0x1d, 0xfe, 0x18, 0x51,
  0x27, 0x99, 0x28, 0x52, 0xab, 0x93, 0x4b, 0x64, 0x69, 0x62, 0x2a, 0xfc,
  0xd7, 0x37, 0xf2, 0x39, 0x93, 0x49, 0xf8, 0x12, 0x47, 0x4a, 0x8d, 0x3b,
  0x4b, 0xfb, 0xbe, 0x78, 0x7f, 0xee, 0x82, 0x54, 0xad, 0x42, 0xbd, 0xac,
  0x1d, 0xd0, 0xb5, 0xf3, 0xcc, 0x22, 0x1f, 0xb3, 0x53, 0x81, 0xdf, 0xd6,
  0xc4, 0x14, 0x20, 0xc1, 0xf7, 0x63, 0x33, 0x0f, 0xc4, 0xe3, 0x35, 0x1a,
  0xd4, 0xb9, 0x36, 0xd8, 0xa2, 0x04, 0x03, 0xfa, 0xca, 0xd4, 0x8d, 0xec,
  0xfe, 0xbf, 0xef, 0x20, 0x71, 0xef, 0x28, 0x19, 0xe6, 0xca, 0x9a, 0xaf,
  0x87, 0xca, 0x23, 0xeb, 0x2b, 0x18, 0x17, 0xa1, 0xfd, 0x72, 0x04, 0xe4,
  0x9f, 0xd0, 0x20, 0xc6, 0x5f, 0xd6, 0xf4, 0x81, 0x5c, 0x15, 0x5e, 0xa1,
  0x92, 0x53, 0xd2, 0x36, 0x8f, 0x03, 0x47, 0x57, 0x27, 0xfc, 0xc0, 0x3c,
  0xb0, 0xbb, 0x03, 0x3e, 0xcc, 0x27, 0xa0, 0x3d, 0x4d, 0x5d, 0xa9, 0xab,
  0x45, 0x81, 0x48, 0x5c, 0x5b, 0xb5, 0xd5, 0xa9, 0x2d, 0xa8, 0xca, 0xbb,
  0xdf, 0x2a, 0xfe, 0xd5, 0xc3, 0x21, 0x59, 0xee, 0xb8, 0x28, 0x61, 0xaf,
  0x81, 0x07, 0xd8, 0xbc, 0xee, 0xe1, 0xf1, 0xda, 0xd7, 0x28, 0xf0, 0xea,
  0xeb, 0x2c, 0x08, 0xff, 0x1e, 0x9a, 0xf3, 0x0a, 0xf4, 0xe9, 0xd8, 0xec,
  0x21, 0x7f, 0x2b, 0xf0, 0x02, 0xf9, 0xe9, 0xc1, 0xfb, 0xc8, 0xa9, 0xd9,
  0x43, 0x49, 0xcb, 0xbd, 0x14, 0x0d, 0x07, 0xd2, 0xbf, 0x50, 0x53, 0x8f,
  0xd7, 0x3b, 0x33, 0x01, 0x36, 0x40, 0x1d, 0x17, 0x08, 0xe9, 0xba, 0x4a,
  0x3d, 0x74, 0xcf, 0x6b, 0xff, 0x38, 0x22, 0xea, 0xf2, 0xac, 0xce, 0x7f,
  0x1a, 0xdc, 0x8b, 0xf7, 0xac, 0x15, 0x58, 0x3a, 0xa8, 0xfc, 0x1d, 0x4d,
  0x81, 0xcc, 0x31, 0x19, 0x46, 0x3e, 0x65, 0x9e, 0x0d, 0xec, 0xa8, 0xd0,
  0x14, 0xd0, 0xd6, 0x2f, 0xf0, 0xe9, 0x86, 0x2e, 0x01, 0xaa, 0x1f, 0x2b,
  0xb0, 0x66, 0x07, 0xd7, 0x0b, 0x46, 0x31, 0xd9, 0xd4, 0xa7, 0x89, 0x1b,
  0xbb, 0x38, 0x25, 0x81, 0xe1, 0x7e, 0xa9, 0x3d, 0x4d, 0xdf, 0xc5, 0x16,
  0xd2, 0xcb, 0xe7, 0xdb, 0x56, 0x04, 0x3d, 0x29, 0x9c, 0x34, 0xad, 0xcd,
  0x54, 0x1b, 0x81, 0xa9, 0x46, 0xd3, 0x34, 0xba, 0xd5, 0xb1, 0xd0, 0x18,
  0xec, 0xa8, 0xd3, 0x42, 0x3d, 0xc9, 0x52, 0xd8, 0xe1, 0x1d, 0x62, 0x07,
  0x3d, 0x1f, 0xe5, 0x09, 0xb4, 0x08, 0xc1, 0x19, 0x9c, 0xe2, 0x17, 0x4c,
  0xed, 0x9f, 0x8d, 0x45, 0x2b, 0x00, 0x18, 0x03, 0xbf, 0xeb, 0xb1, 0xd0,
  0xe6, 0xe9, 0xc9, 0xd2, 0x2d, 0xd5, 0xce, 0x3c, 0x14, 0x81, 0xd8, 0x2f,
  0x19, 0xb9, 0x2a, 0xa8, 0xf0, 0xf2, 0x08, 0x04, 0xd3, 0xba, 0x4e, 0xb0,
  0xf6, 0xe2, 0xbd, 0xf9, 0x3f, 0xfb, 0x81, 0x1b, 0x1a, 0x4f, 0xe0, 0xc2,
  0xc4, 0x20, 0xe7, 0x37, 0x2d, 0xf0, 0x07, 0xec, 0x47, 0x08, 0xd9, 0xb9,
  0x97, 0xbe, 0x51, 0x05, 0x8d, 0x25, 0xaa, 0xe3, 0x44, 0x31, 0xbe, 0x81,
  0x4d, 0xf0, 0x12, 0x30, 0x4b, 0x21, 0xa6, 0xd1, 0x2e, 0x23, 0xd5, 0x09,
  0x44, 0x9d, 0xd2, 0x13, 0x1c, 0x1f, 0x36, 0x27, 0x83, 0x5f, 0x06, 0x49,
  0xa6, 0xe9, 0x9f, 0x15, 0xac, 0xfb, 0xcd, 0x19, 0x7f, 0x7d, 0xf8, 0xbd,
  0xee, 0xdb, 0x26, 0xa7, 0xf2, 0x3b, 0x1b, 0x0f, 0x0c, 0x06, 0x74, 0xd9,
  0x50, 0xa8, 0x50, 0xb4, 0x40, 0x76, 0x7b, 0xa0, 0x49, 0xc7, 0x3c, 0xd2,
  0x26, 0xfb, 0xad, 0x81, 0x37, 0xe5, 0xa7, 0x33, 0xd8, 0xb6, 0x8d, 0x08,
  0x31, 0x9e, 0x8f, 0x51, 0x35, 0xeb, 0x42, 0x89, 0xfc, 0xbb, 0xd3, 0x0c,
  0xcd, 0x03, 0xd7, 0xc3, 0x05, 0xff, 0x81, 0x27, 0x76, 0xc0, 0xcd, 0xe2,
  0x39, 0x37, 0xd5, 0x67, 0xce, 0xb0, 0x18, 0xf7, 0xfb, 0x42, 0xb5, 0xf4,
  0x68, 0x1c, 0x0a, 0x34, 0xc9, 0x25, 0xe4, 0x7f, 0x04, 0xf0, 0xb2, 0x02,
  0x0b, 0xcc, 0xf5, 0x31, 0xa4, 0x10, 0x0f, 0x38, 0xdf, 0xb6, 0xb8, 0x24,
  0xf1, 0x0e, 0x09, 0xea, 0xb4, 0xdc, 0xe4, 0x05, 0xcd, 0xf1, 0xe8, 0xe4,
  0x5e, 0x3d, 0xb0, 0x21, 0xe8, 0xfd, 0xf7, 0xcc, 0xb3, 0x43, 0xfe, 0x4b,
  0x92, 0x3d, 0xf2, 0xf4, 0xdf, 0x42, 0x35, 0x0c, 0x08, 0x24, 0xe5, 0x20,
  0x4f, 0x71, 0xe6, 0x92, 0x88, 0x81, 0x78, 0x27, 0x25, 0x2e, 0xc7, 0x81,
  0x38, 0x50, 0xe3, 0x1a, 0x14, 0x3e, 0xd2, 0x39, 0xdd, 0x5d, 0x30, 0x10,
  0x4e, 0x18, 0xf2, 0x28, 0xed, 0x14, 0xd4, 0xea, 0x5c, 0x0a, 0x90, 0x1c,
  0xbb, 0x01, 0xad, 0x0f, 0x83, 0xb3, 0x94, 0x48, 0xac, 0x43, 0x1c, 0xd1,
  0x1c, 0x54, 0xac, 0x81, 0xfd, 0xc4, 0x08, 0x56, 0x30, 0x1e, 0xf0, 0x3e,
  0xbf, 0x11, 0xfe, 0x55, 0x95, 0xb1, 0x6c, 0xf0, 0xcb, 0xad, 0x0f, 0x1f,
  0x07, 0xc3, 0xce, 0xc4, 0xd2, 0x1b, 0x2c, 0x16, 0x4b, 0x8f, 0x16, 0xd6,
  0xbe, 0xea, 0x60, 0xe9, 0xe5, 0x0a, 0xc8, 0x11, 0x11, 0xbe, 0xce, 0xee,
  0x61, 0x0c, 0xc0, 0xba, 0xda, 0x81, 0xde, 0x01, 0x21, 0xe7, 0xed, 0xb8,
  0x0a, 0xf2, 0x16, 0xfe, 0xe2, 0x25, 0xd4, 0x70, 0xcb, 0xfa, 0x02, 0xd7,
  0xf5, 0xdf, 0x24, 0xb2, 0xe1, 0xf1, 0xd2, 0x14, 0xad, 0x7f, 0xb1, 0x79,
  0x32, 0x00, 0x46, 0xea, 0x6f, 0x1a, 0x5f, 0x10, 0xdc, 0xf2, 0xd8, 0xb1,
  0xb3, 0xb4, 0xfd, 0x3b, 0x2f, 0x50, 0x53, 0xa3, 0xdd, 0xed, 0x9c, 0x71,
  0xe5, 0x52, 0x81, 0xee, 0x30, 0xfa, 0x8e, 0x53, 0x25, 0xcf, 0x47, 0x3e,
  0x27, 0xcb, 0xee, 0x1e, 0xb6, 0xe3, 0xe8, 0x8e, 0xef, 0x7f, 0xda, 0xea,
  0x0b, 0xf8, 0x4c, 0x68, 0xdc, 0xca, 0xda, 0xdd, 0xd5, 0x89, 0x13, 0x9a,
  0x9f, 0x27, 0x1a, 0xe7, 0xc0, 0xef, 0xae, 0xd5, 0x4a, 0xfb, 0x96, 0x97,
  0xa1, 0x2e, 0xde, 0x73, 0x9b, 0x9f, 0xae, 0xdd, 0x4e, 0xe3, 0x7f, 0x36,
  0xcb, 0x1a, 0xc8, 0xc1, 0x66, 0x16, 0xd3, 0xaf, 0xa7, 0x12, 0x4c, 0x4e,
  0xc9, 0x8a, 0xff, 0x30, 0x08, 0xd0, 0x49, 0x20, 0x10, 0x60, 0x21, 0xab,
  0xfe, 0xfd, 0x6e, 0xae, 0x81, 0x15, 0x6a, 0x30, 0x06, 0xd6, 0x46, 0x37,
  0x13, 0x1c, 0xd5, 0x09, 0xc0, 0x4e, 0xf8, 0x22, 0xbc, 0xfc, 0x02, 0x0f,
  0x01, 0xaf, 0xae, 0xf5, 0x4e, 0xe2, 0x3d, 0x05, 0xc0, 0x21, 0xa2, 0xcd,
  0x7f, 0xaf, 0x83, 0xfd, 0xf8, 0xfd, 0xde, 0xb9, 0x69, 0x30, 0x03, 0xee,
  0xd5, 0x02, 0x0b, 0x1a, 0x67, 0xce, 0xe3, 0x0d, 0x08, 0x04, 0xce, 0x24,
  0xd4, 0xf0, 0x17, 0xad, 0xa4, 0x53, 0xf3, 0x02, 0x22, 0x42, 0x20, 0x10,
  0x20, 0xb1, 0xfc, 0xc3, 0xf0, 0x81, 0x22, 0xd6, 0xe0, 0xe2, 0xf1, 0xd9,
  0xba, 0x20, 0xf1, 0xc0, 0xc5, 0x28, 0x1e, 0x55, 0x38, 0xf3, 0xa4, 0x08,
  0xfb, 0xfb, 0x07, 0xa3, 0xa9, 0xf8, 0x53, 0xd7, 0x96, 0x02, 0x4a, 0x51,
  0x81, 0xa6, 0x7d, 0xf1, 0xf6, 0xf9, 0xca, 0x9a, 0xda, 0xc6, 0xb5, 0x3e,
  0xd2, 0x2a, 0x2e, 0xa2, 0xfd, 0xc5, 0xc4, 0x48, 0xef, 0x81, 0xf1, 0xf0,
  0xd8, 0xbe, 0xd8, 0xc0, 0x51, 0x21, 0xb4, 0x6c, 0xd7, 0x04, 0x9a, 0x37,
  0x0b, 0x94, 0x07, 0x97, 0xd3, 0xdf, 0x71, 0x61, 0xfa, 0xfd, 0xff, 0xff,
  0x04, 0x00, 0x00, 0x00, 0x00, 0x01, 0x00, 0x00, 0xf9, 0x18, 0x00, 0x00,
  0x71, 0x10, 0x00, 0x00, 0x3b, 0xf9, 0xff, 0xff, 0x69, 0xf0, 0xff, 0xff,
  0x3a, 0xff, 0xff, 0xff, 0x13, 0x08, 0x00, 0x00, 0x19, 0x1a, 0x00, 0x00,
  0x7a, 0x11, 0x00, 0x00, 0xec, 0x18, 0x00, 0x00, 0x79, 0x0c, 0x00, 0x00,
  0x12, 0x17, 0x00, 0x00, 0xad, 0x29, 0x00, 0x00, 0xb4, 0x2a, 0x00, 0x00,
  0xf1, 0xee, 0xff, 0xff, 0x75, 0x2b, 0x00, 0x00, 0x99, 0x0f, 0x00, 0x00,
  0x7b, 0x26, 0x00, 0x00, 0x0f, 0x13, 0x00, 0x00, 0xca, 0x1f, 0x00, 0x00,
  0x76, 0xfc, 0xff, 0xff, 0x12, 0x41, 0x00, 0x00, 0xb4, 0x18, 0x00, 0x00,
  0xbf, 0x1b, 0x00, 0x00, 0x19, 0x0d, 0x00, 0x00, 0xe5, 0x09, 0x00, 0x00,
  0xa2, 0x16, 0x00, 0x00, 0x1a, 0x0a, 0x00, 0x00, 0xfe, 0x1b, 0x00, 0x00,
  0xcb, 0x15, 0x00, 0x00, 0x4e, 0x1c, 0x00, 0x00, 0x6d, 0x22, 0x00, 0x00,
  0x00, 0x19, 0x00, 0x00, 0x8c, 0x10, 0x00, 0x00, 0x8d, 0xe6, 0xff, 0xff,
  0x70, 0xf2, 0xff, 0xff, 0x45, 0x21, 0x00, 0x00, 0xc2, 0x17, 0x00, 0x00,
  0x37, 0x0e, 0x00, 0x00, 0x5f, 0x16, 0x00, 0x00, 0xd2, 0xf5, 0xff, 0xff,
  0x2c, 0xf1, 0xff, 0xff, 0x7e, 0x02, 0x00, 0x00, 0x29, 0x2b, 0x00, 0x00,
  0x90, 0x0f, 0x00, 0x00, 0xa3, 0x1f, 0x00, 0x00, 0xdb, 0x2f, 0x00, 0x00,
  0x57, 0x07, 0x00, 0x00, 0x1f, 0xfc, 0xff, 0xff, 0xb3, 0x3d, 0x00, 0x00,
  0xfc, 0xfa, 0xff, 0xff, 0xe6, 0xfd, 0xff, 0xff, 0x86, 0xef, 0xff, 0xff,
  0xac, 0xf9, 0xff, 0xff, 0x24, 0x13, 0x00, 0x00, 0x6f, 0x26, 0x00, 0x00,
  0x70, 0xf9, 0xff, 0xff, 0x34, 0x03, 0x00, 0x00, 0x5c, 0x2e, 0x00, 0x00,
  0xe9, 0xef, 0xff, 0xff, 0x94, 0xf5, 0xff, 0xff, 0xbf, 0x15, 0x00, 0x00,
  0x80, 0x22, 0x00, 0x00, 0x49, 0x28, 0x00, 0x00, 0x4c, 0x2f, 0x00, 0x00,
  0x06, 0xff, 0xff, 0xff, 0x04, 0x00, 0x00, 0x00, 0xc0, 0x00, 0x00, 0x00,
  0xb9, 0x1e, 0x2a, 0xfe, 0x22, 0x34, 0xd9, 0xf7, 0xa7, 0xda, 0xb0, 0x02,
  0xe1, 0x35, 0xcc, 0xd7, 0xd7, 0x61, 0xcd, 0x2c, 0xd5, 0xd2, 0xee, 0xfc,
  0x12, 0xc7, 0x55, 0x00, 0x25, 0x00, 0x9e, 0xa7, 0xbc, 0x3a, 0x4c, 0xcf,
  0xcf, 0x2a, 0xa3, 0x1c, 0x42, 0x41, 0x30, 0xf2, 0x77, 0x39, 0x43, 0x1b,
  0x01, 0x4b, 0x81, 0x17, 0x32, 0xb7, 0x21, 0x22, 0x3b, 0xcc, 0x61, 0xd1,
  0x15, 0xd5, 0xcb, 0x55, 0xf2, 0xcf, 0xf6, 0xda, 0xdf, 0x5c, 0x3f, 0xe9,
  0x2c, 0x3b, 0x1e, 0x96, 0x34, 0xff, 0x25, 0x15, 0x45, 0x0b, 0xe9, 0xec,
  0x1f, 0x1a, 0x46, 0x4e, 0xf5, 0x1c, 0xc5, 0x07, 0xb8, 0x41, 0x46, 0x42,
  0x2a, 0xf9, 0xf4, 0x7f, 0x0b, 0xe9, 0x5a, 0x1d, 0xe2, 0xdf, 0xc5, 0x25,
  0xa8, 0x9d, 0xd3, 0xe4, 0xb0, 0xf7, 0x11, 0xd8, 0xe8, 0x16, 0x8c, 0xe6,
  0xea, 0x5b, 0xfb, 0xf4, 0xf0, 0x40, 0x45, 0xb2, 0xad, 0x3b, 0x2d, 0xcb,
  0x16, 0xa7, 0x02, 0x99, 0xb2, 0xde, 0xd9, 0x2f, 0x48, 0x28, 0xb6, 0xc7,
  0x02, 0xd3, 0xc2, 0x1c, 0xe6, 0xcf, 0x18, 0xda, 0x33, 0xb7, 0xf8, 0xb4,
  0x2a, 0x81, 0xe6, 0xac, 0xe4, 0x39, 0x38, 0xe2, 0xbb, 0x1b, 0x0e, 0x45,
  0x38, 0x33, 0x1b, 0xbf, 0x5a, 0x0e, 0x30, 0x20, 0x03, 0xf2, 0x1f, 0x38,
  0x3a, 0xb9, 0x55, 0x2b, 0x33, 0x26, 0x46, 0x3b, 0xab, 0x28, 0x10, 0x0b,
  0xd2, 0xff, 0xff, 0xff, 0x04, 0x00, 0x00, 0x00, 0x0c, 0x00, 0x00, 0x00,
  0xe4, 0xe8, 0xff, 0xff, 0x8f, 0x02, 0x00, 0x00, 0x50, 0xe7, 0xff, 0xff,
  0xea, 0xff, 0xff, 0xff, 0x04, 0x00, 0x00, 0x00, 0x08, 0x00, 0x00, 0x00,
  0xff, 0xff, 0xff, 0xff, 0x20, 0x00, 0x00, 0x00, 0x00, 0x00, 0x06, 0x00,
  0x08, 0x00, 0x04, 0x00, 0x06, 0x00, 0x00, 0x00, 0x04, 0x00, 0x00, 0x00,
  0x04, 0x00, 0x00, 0x00, 0xfd, 0xff, 0xff, 0xff, 0xec, 0xee, 0xff, 0xff,
  0xf0, 0xee, 0xff, 0xff, 0x0f, 0x00, 0x00, 0x00, 0x4d, 0x4c, 0x49, 0x52,
  0x20, 0x43, 0x6f, 0x6e, 0x76, 0x65, 0x72, 0x74, 0x65, 0x64, 0x2e, 0x00,
  0x01, 0x00, 0x00, 0x00, 0x14, 0x00, 0x00, 0x00, 0x00, 0x00, 0x0e, 0x00,
  0x18, 0x00, 0x14, 0x00, 0x10, 0x00, 0x0c, 0x00, 0x08, 0x00, 0x04, 0x00,
  0x0e, 0x00, 0x00, 0x00, 0x14, 0x00, 0x00, 0x00, 0x1c, 0x00, 0x00, 0x00,
  0x70, 0x01, 0x00, 0x00, 0x74, 0x01, 0x00, 0x00, 0x78, 0x01, 0x00, 0x00,
  0x04, 0x00, 0x00, 0x00, 0x6d, 0x61, 0x69, 0x6e, 0x00, 0x00, 0x00, 0x00,
  0x05, 0x00, 0x00, 0x00, 0x28, 0x01, 0x00, 0x00, 0xc4, 0x00, 0x00, 0x00,
  0x8c, 0x00, 0x00, 0x00, 0x3c, 0x00, 0x00, 0x00, 0x04, 0x00, 0x00, 0x00,
  0x5a, 0xff, 0xff, 0xff, 0x14, 0x00, 0x00, 0x00, 0x00, 0x00, 0x00, 0x08,
  0x10, 0x00, 0x00, 0x00, 0x14, 0x00, 0x00, 0x00, 0x03, 0x00, 0x00, 0x00,
  0x74, 0xef, 0xff, 0xff, 0x01, 0x00, 0x00, 0x00, 0x0d, 0x00, 0x00, 0x00,
  0x03, 0x00, 0x00, 0x00, 0x0c, 0x00, 0x00, 0x00, 0x04, 0x00, 0x00, 0x00,
  0x03, 0x00, 0x00, 0x00, 0x8e, 0xff, 0xff, 0xff, 0x1c, 0x00, 0x00, 0x00,
  0x00, 0x00, 0x00, 0x08, 0x1c, 0x00, 0x00, 0x00, 0x20, 0x00, 0x00, 0x00,
  0x03, 0x00, 0x00, 0x00, 0x00, 0x00, 0x06, 0x00, 0x08, 0x00, 0x07, 0x00,
  0x06, 0x00, 0x00, 0x00, 0x00, 0x00, 0x00, 0x01, 0x01, 0x00, 0x00, 0x00,
  0x0c, 0x00, 0x00, 0x00, 0x03, 0x00, 0x00, 0x00, 0x0b, 0x00, 0x00, 0x00,
  0x06, 0x00, 0x00, 0x00, 0x05, 0x00, 0x00, 0x00, 0x00, 0x00, 0x0a, 0x00,
  0x10, 0x00, 0x0c, 0x00, 0x08, 0x00, 0x04, 0x00, 0x0a, 0x00, 0x00, 0x00,
  0x0c, 0x00, 0x00, 0x00, 0x10, 0x00, 0x00, 0x00, 0x02, 0x00, 0x00, 0x00,
  0x01, 0x00, 0x00, 0x00, 0x0b, 0x00, 0x00, 0x00, 0x02, 0x00, 0x00, 0x00,
  0x0a, 0x00, 0x00, 0x00, 0x02, 0x00, 0x00, 0x00, 0x00, 0x00, 0x0e, 0x00,
  0x18, 0x00, 0x14, 0x00, 0x10, 0x00, 0x0c, 0x00, 0x0b, 0x00, 0x04, 0x00,
  0x0e, 0x00, 0x00, 0x00, 0x20, 0x00, 0x00, 0x00, 0x00, 0x00, 0x00, 0x01,
  0x2c, 0x00, 0x00, 0x00, 0x30, 0x00, 0x00, 0x00, 0x01, 0x00, 0x00, 0x00,
  0x0c, 0x00, 0x14, 0x00, 0x13, 0x00, 0x0c, 0x00, 0x08, 0x00, 0x07, 0x00,
  0x0c, 0x00, 0x00, 0x00, 0x00, 0x00, 0x00, 0x01, 0x01, 0x00, 0x00, 0x00,
  0x01, 0x00, 0x00, 0x00, 0x00, 0x00, 0x00, 0x01, 0x01, 0x00, 0x00, 0x00,
  0x0a, 0x00, 0x00, 0x00, 0x03, 0x00, 0x00, 0x00, 0x09, 0x00, 0x00, 0x00,
  0x08, 0x00, 0x00, 0x00, 0x07, 0x00, 0x00, 0x00, 0x00, 0x00, 0x0e, 0x00,
  0x14, 0x00, 0x00, 0x00, 0x10, 0x00, 0x0c, 0x00, 0x0b, 0x00, 0x04, 0x00,
  0x0e, 0x00, 0x00, 0x00, 0x10, 0x00, 0x00, 0x00, 0x00, 0x00, 0x00, 0x34,
  0x0c, 0x00, 0x00, 0x00, 0x10, 0x00, 0x00, 0x00, 0x84, 0xf0, 0xff, 0xff,
  0x01, 0x00, 0x00, 0x00, 0x09, 0x00, 0x00, 0x00, 0x02, 0x00, 0x00, 0x00,
  0x00, 0x00, 0x00, 0x00, 0x01, 0x00, 0x00, 0x00, 0x01, 0x00, 0x00, 0x00,
  0x0d, 0x00, 0x00, 0x00, 0x01, 0x00, 0x00, 0x00, 0x00, 0x00, 0x00, 0x00,
  0x0e, 0x00, 0x00, 0x00, 0x88, 0x0f, 0x00, 0x00, 0x30, 0x0f, 0x00, 0x00,
  0xd8, 0x0e, 0x00, 0x00, 0x5c, 0x0e, 0x00, 0x00, 0xe0, 0x0d, 0x00, 0x00,
  0x8c, 0x0a, 0x00, 0x00, 0x30, 0x07, 0x00, 0x00, 0x5c, 0x05, 0x00, 0x00,
  0x78, 0x03, 0x00, 0x00, 0xd4, 0x02, 0x00, 0x00, 0xc8, 0x01, 0x00, 0x00,
  0x44, 0x01, 0x00, 0x00, 0x80, 0x00, 0x00, 0x00, 0x04, 0x00, 0x00, 0x00,
  0xc6, 0xf0, 0xff, 0xff, 0x00, 0x00, 0x00, 0x01, 0x18, 0x00, 0x00, 0x00,
  0x20, 0x00, 0x00, 0x00, 0x3c, 0x00, 0x00, 0x00, 0x0e, 0x00, 0x00, 0x00,
  0x00, 0x00, 0x00, 0x09, 0x50, 0x00, 0x00, 0x00, 0x02, 0x00, 0x00, 0x00,
  0xff, 0xff, 0xff, 0xff, 0x03, 0x00, 0x00, 0x00, 0xac, 0xf0, 0xff, 0xff,
  0x08, 0x00, 0x00, 0x00, 0x10, 0x00, 0x00, 0x00, 0x01, 0x00, 0x00, 0x00,
  0x04, 0x00, 0x00, 0x00, 0x00, 0x00, 0x00, 0x00, 0x01, 0x00, 0x00, 0x00,
  0xb2, 0x55, 0x60, 0x3c, 0x1b, 0x00, 0x00, 0x00, 0x53, 0x74, 0x61, 0x74,
  0x65, 0x66, 0x75, 0x6c, 0x50, 0x61, 0x72, 0x74, 0x69, 0x74, 0x69, 0x6f,
  0x6e, 0x65, 0x64, 0x43, 0x61, 0x6c, 0x6c, 0x5f, 0x31, 0x3a, 0x30, 0x00,
  0x02, 0x00, 0x00, 0x00, 0x01, 0x00, 0x00, 0x00, 0x03, 0x00, 0x00, 0x00,
  0x3e, 0xf1, 0xff, 0xff, 0x00, 0x00, 0x00, 0x01, 0x18, 0x00, 0x00, 0x00,
  0x20, 0x00, 0x00, 0x00, 0x40, 0x00, 0x00, 0x00, 0x0d, 0x00, 0x00, 0x00,
  0x00, 0x00, 0x00, 0x09, 0x98, 0x00, 0x00, 0x00, 0x02, 0x00, 0x00, 0x00,
  0xff, 0xff, 0xff, 0xff, 0x40, 0x00, 0x00, 0x00, 0x24, 0xf1, 0xff, 0xff,
  0x08, 0x00, 0x00, 0x00, 0x14, 0x00, 0x00, 0x00, 0x01, 0x00, 0x00, 0x00,
  0x80, 0xff, 0xff, 0xff, 0xff, 0xff, 0xff, 0xff, 0x00, 0x00, 0x00, 0x00,
  0x01, 0x00, 0x00, 0x00, 0x7e, 0xaf, 0x3e, 0x3b, 0x5e, 0x00, 0x00, 0x00,
  0x73, 0x65, 0x71, 0x75, 0x65, 0x6e, 0x74, 0x69, 0x61, 0x6c, 0x5f, 0x33,
  0x5f, 0x31, 0x2f, 0x64, 0x65, 0x6e, 0x73, 0x65, 0x5f, 0x36, 0x5f, 0x31,
  0x2f, 0x4d, 0x61, 0x74, 0x4d, 0x75, 0x6c, 0x3b, 0x73, 0x65, 0x71, 0x75,
  0x65, 0x6e, 0x74, 0x69, 0x61, 0x6c, 0x5f, 0x33, 0x5f, 0x31, 0x2f, 0x64,
  0x65, 0x6e, 0x73, 0x65, 0x5f, 0x36, 0x5f, 0x31, 0x2f, 0x52, 0x65, 0x6c,
  0x75, 0x3b, 0x73, 0x65, 0x71, 0x75, 0x65, 0x6e, 0x74, 0x69, 0x61, 0x6c,
  0x5f, 0x33, 0x5f, 0x31, 0x2f, 0x64, 0x65, 0x6e, 0x73, 0x65, 0x5f, 0x36,
  0x5f, 0x31, 0x2f, 0x42, 0x69, 0x61, 0x73, 0x41, 0x64, 0x64, 0x00, 0x00,
  0x02, 0x00, 0x00, 0x00, 0x01, 0x00, 0x00, 0x00, 0x40, 0x00, 0x00, 0x00,
  0xfe, 0xf1, 0xff, 0xff, 0x00, 0x00, 0x00, 0x01, 0x18, 0x00, 0x00, 0x00,
  0x20, 0x00, 0x00, 0x00, 0x3c, 0x00, 0x00, 0x00, 0x0c, 0x00, 0x00, 0x00,
  0x00, 0x00, 0x00, 0x09, 0x58, 0x00, 0x00, 0x00, 0x02, 0x00, 0x00, 0x00,
  0xff, 0xff, 0xff, 0xff, 0x20, 0x00, 0x00, 0x00, 0xe4, 0xf1, 0xff, 0xff,
  0x08, 0x00, 0x00, 0x00, 0x10, 0x00, 0x00, 0x00, 0x01, 0x00, 0x00, 0x00,
  0x80, 0xff, 0xff, 0xff, 0xff, 0xff, 0xff, 0xff, 0x01, 0x00, 0x00, 0x00,
  0xeb, 0xfe, 0x9f, 0x3b, 0x22, 0x00, 0x00, 0x00, 0x73, 0x65, 0x71, 0x75,
  0x65, 0x6e, 0x74, 0x69, 0x61, 0x6c, 0x5f, 0x33, 0x5f, 0x31, 0x2f, 0x66,
  0x6c, 0x61, 0x74, 0x74, 0x65, 0x6e, 0x5f, 0x33, 0x5f, 0x31, 0x2f, 0x52,
  0x65, 0x73, 0x68, 0x61, 0x70, 0x65, 0x00, 0x00, 0x02, 0x00, 0x00, 0x00,
  0x01, 0x00, 0x00, 0x00, 0x20, 0x00, 0x00, 0x00, 0x7e, 0xf2, 0xff, 0xff,
  0x00, 0x00, 0x00, 0x01, 0x18, 0x00, 0x00, 0x00, 0x28, 0x00, 0x00, 0x00,
  0x48, 0x00, 0x00, 0x00, 0x0b, 0x00, 0x00, 0x00, 0x00, 0x00, 0x00, 0x09,
  0xd8, 0x00, 0x00, 0x00, 0x04, 0x00, 0x00, 0x00, 0xff, 0xff, 0xff, 0xff,
  0x01, 0x00, 0x00, 0x00, 0x01, 0x00, 0x00, 0x00, 0x20, 0x00, 0x00, 0x00,
  0x6c, 0xf2, 0xff, 0xff, 0x08, 0x00, 0x00, 0x00, 0x14, 0x00, 0x00, 0x00,
  0x01, 0x00, 0x00, 0x00, 0x80, 0xff, 0xff, 0xff, 0xff, 0xff, 0xff, 0xff,
  0x00, 0x00, 0x00, 0x00, 0x01, 0x00, 0x00, 0x00, 0xeb, 0xfe, 0x9f, 0x3b,
  0x95, 0x00, 0x00, 0x00, 0x73, 0x65, 0x71, 0x75, 0x65, 0x6e, 0x74, 0x69,
  0x61, 0x6c, 0x5f, 0x33, 0x5f, 0x31, 0x2f, 0x63, 0x6f, 0x6e, 0x76, 0x31,
  0x64, 0x5f, 0x33, 0x5f, 0x31, 0x2f, 0x52, 0x65, 0x6c, 0x75, 0x3b, 0x73,
  0x65, 0x71, 0x75, 0x65, 0x6e, 0x74, 0x69, 0x61, 0x6c, 0x5f, 0x33, 0x5f,
  0x31, 0x2f, 0x63, 0x6f, 0x6e, 0x76, 0x31, 0x64, 0x5f, 0x33, 0x5f, 0x31,
  0x2f, 0x42, 0x69, 0x61, 0x73, 0x41, 0x64, 0x64, 0x3b, 0x73, 0x65, 0x71,
  0x75, 0x65, 0x6e, 0x74, 0x69, 0x61, 0x6c, 0x5f, 0x33, 0x5f, 0x31, 0x2f,
  0x63, 0x6f, 0x6e, 0x76, 0x31, 0x64, 0x5f, 0x33, 0x5f, 0x31, 0x2f, 0x63,
  0x6f, 0x6e, 0x76, 0x6f, 0x6c, 0x75, 0x74, 0x69, 0x6f, 0x6e, 0x2f, 0x53,
  0x71, 0x75, 0x65, 0x65, 0x7a, 0x65, 0x3b, 0x3b, 0x73, 0x65, 0x71, 0x75,
  0x65, 0x6e, 0x74, 0x69, 0x61, 0x6c, 0x5f, 0x33, 0x5f, 0x31, 0x2f, 0x63,
  0x6f, 0x6e, 0x76, 0x31, 0x64, 0x5f, 0x33, 0x5f, 0x31, 0x2f, 0x63, 0x6f,
  0x6e, 0x76, 0x6f, 0x6c, 0x75, 0x74, 0x69, 0x6f, 0x6e, 0x00, 0x00, 0x00,
  0x04, 0x00, 0x00, 0x00, 0x01, 0x00, 0x00, 0x00, 0x01, 0x00, 0x00, 0x00,
  0x01, 0x00, 0x00, 0x00, 0x20, 0x00, 0x00, 0x00, 0x86, 0xf3, 0xff, 0xff,
  0x00, 0x00, 0x00, 0x01, 0x18, 0x00, 0x00, 0x00, 0x28, 0x00, 0x00, 0x00,
  0x44, 0x00, 0x00, 0x00, 0x0a, 0x00, 0x00, 0x00, 0x00, 0x00, 0x00, 0x09,
  0x70, 0x00, 0x00, 0x00, 0x04, 0x00, 0x00, 0x00, 0xff, 0xff, 0xff, 0xff,
  0x01, 0x00, 0x00, 0x00, 0x03, 0x00, 0x00, 0x00, 0x03, 0x00, 0x00, 0x00,
  0x74, 0xf3, 0xff, 0xff, 0x08, 0x00, 0x00, 0x00, 0x10, 0x00, 0x00, 0x00,
  0x01, 0x00, 0x00, 0x00, 0xff, 0xff, 0xff, 0xff, 0xff, 0xff, 0xff, 0xff,
  0x01, 0x00, 0x00, 0x00, 0x53, 0x2d, 0x83, 0x3c, 0x30, 0x00, 0x00, 0x00,
  0x73, 0x65, 0x71, 0x75, 0x65, 0x6e, 0x74, 0x69, 0x61, 0x6c, 0x5f, 0x33,
  0x5f, 0x31, 0x2f, 0x63, 0x6f, 0x6e, 0x76, 0x31, 0x64, 0x5f, 0x33, 0x5f,
  0x31, 0x2f, 0x63, 0x6f, 0x6e, 0x76, 0x6f, 0x6c, 0x75, 0x74, 0x69, 0x6f,
  0x6e, 0x2f, 0x45, 0x78, 0x70, 0x61, 0x6e, 0x64, 0x44, 0x69, 0x6d, 0x73,
  0x00, 0x00, 0x00, 0x00, 0x04, 0x00, 0x00, 0x00, 0x01, 0x00, 0x00, 0x00,
  0x01, 0x00, 0x00, 0x00, 0x03, 0x00, 0x00, 0x00, 0x03, 0x00, 0x00, 0x00,
  0x7a, 0xf4, 0xff, 0xff, 0x00, 0x00, 0x00, 0x01, 0x14, 0x00, 0x00, 0x00,
  0xa8, 0x01, 0x00, 0x00, 0x09, 0x00, 0x00, 0x00, 0x00, 0x00, 0x00, 0x09,
  0xb4, 0x01, 0x00, 0x00, 0xfc, 0xf3, 0xff, 0xff, 0x08, 0x00, 0x00, 0x00,
  0x0c, 0x01, 0x00, 0x00, 0x20, 0x00, 0x00, 0x00, 0x00, 0x00, 0x00, 0x00,
  0x00, 0x00, 0x00, 0x00, 0x00, 0x00, 0x00, 0x00, 0x00, 0x00, 0x00, 0x00,
  0x00, 0x00, 0x00, 0x00, 0x00, 0x00, 0x00, 0x00, 0x00, 0x00, 0x00, 0x00,
  0x00, 0x00, 0x00, 0x00, 0x00, 0x00, 0x00, 0x00, 0x00, 0x00, 0x00, 0x00,
  0x00, 0x00, 0x00, 0x00, 0x00, 0x00, 0x00, 0x00, 0x00, 0x00, 0x00, 0x00,
  0x00, 0x00, 0x00, 0x00, 0x00, 0x00, 0x00, 0x00, 0x00, 0x00, 0x00, 0x00,
  0x00, 0x00, 0x00, 0x00, 0x00, 0x00, 0x00, 0x00, 0x00, 0x00, 0x00, 0x00,
  0x00, 0x00, 0x00, 0x00, 0x00, 0x00, 0x00, 0x00, 0x00, 0x00, 0x00, 0x00,
  0x00, 0x00, 0x00, 0x00, 0x00, 0x00, 0x00, 0x00, 0x00, 0x00, 0x00, 0x00,
  0x00, 0x00, 0x00, 0x00, 0x00, 0x00, 0x00, 0x00, 0x00, 0x00, 0x00, 0x00,
  0x00, 0x00, 0x00, 0x00, 0x00, 0x00, 0x00, 0x00, 0x00, 0x00, 0x00, 0x00,
  0x00, 0x00, 0x00, 0x00, 0x00, 0x00, 0x00, 0x00, 0x00, 0x00, 0x00, 0x00,
  0x00, 0x00, 0x00, 0x00, 0x00, 0x00, 0x00, 0x00, 0x00, 0x00, 0x00, 0x00,
  0x00, 0x00, 0x00, 0x00, 0x00, 0x00, 0x00, 0x00, 0x00, 0x00, 0x00, 0x00,
  0x00, 0x00, 0x00, 0x00, 0x00, 0x00, 0x00, 0x00, 0x00, 0x00, 0x00, 0x00,
  0x00, 0x00, 0x00, 0x00, 0x00, 0x00, 0x00, 0x00, 0x00, 0x00, 0x00, 0x00,
  0x00, 0x00, 0x00, 0x00, 0x00, 0x00, 0x00, 0x00, 0x00, 0x00, 0x00, 0x00,
  0x00, 0x00, 0x00, 0x00, 0x00, 0x00, 0x00, 0x00, 0x00, 0x00, 0x00, 0x00,
  0x00, 0x00, 0x00, 0x00, 0x00, 0x00, 0x00, 0x00, 0x00, 0x00, 0x00, 0x00,
  0x00, 0x00, 0x00, 0x00, 0x00, 0x00, 0x00, 0x00, 0x00, 0x00, 0x00, 0x00,
  0x00, 0x00, 0x00, 0x00, 0x00, 0x00, 0x00, 0x00, 0x00, 0x00, 0x00, 0x00,
  0x00, 0x00, 0x00, 0x00, 0x00, 0x00, 0x00, 0x00, 0x00, 0x00, 0x00, 0x00,
  0x00, 0x00, 0x00, 0x00, 0x20, 0x00, 0x00, 0x00, 0xb6, 0x80, 0xc5, 0x3a,
  0xed, 0xdb, 0x0e, 0x3b, 0xb0, 0x71, 0xa1, 0x3a, 0x2d, 0xef, 0xdb, 0x3a,
  0x3c, 0x3d, 0xf8, 0x3a, 0x6c, 0xf4, 0x12, 0x3b, 0x78, 0xfb, 0xef, 0x3a,
  0x92, 0x0a, 0x10, 0x3b, 0x94, 0xbf, 0x2d, 0x3b, 0x6a, 0xf5, 0xd3, 0x3a,
  0x2e, 0xb4, 0xcc, 0x3a, 0x35, 0xc3, 0xd5, 0x3a, 0xcd, 0x30, 0x09, 0x3b,
  0xf0, 0xc0, 0xf1, 0x3a, 0x08, 0xaf, 0xe5, 0x3a, 0x16, 0xce, 0x01, 0x3b,
  0x32, 0xc3, 0xcf, 0x3a, 0x89, 0x0e, 0xcc, 0x3a, 0x3c, 0x42, 0xc6, 0x3a,
  0x9a, 0x42, 0xe7, 0x3a, 0x64, 0x45, 0x09, 0x3b, 0x34, 0xd7, 0x07, 0x3b,
  0x37, 0x6f, 0xb8, 0x3a, 0xd7, 0x60, 0xd3, 0x3a, 0x15, 0xc9, 0xc6, 0x3a,
  0xcf, 0x36, 0xcd, 0x3a, 0xd3, 0x43, 0x13, 0x3b, 0x26, 0xfa, 0x04, 0x3b,
  0x5d, 0x8d, 0x33, 0x3b, 0x06, 0x7c, 0x14, 0x3b, 0x83, 0xb2, 0x0a, 0x3b,
  0xf2, 0x55, 0xd2, 0x3a, 0x12, 0x00, 0x00, 0x00, 0x74, 0x66, 0x6c, 0x2e,
  0x70, 0x73, 0x65, 0x75, 0x64, 0x6f, 0x5f, 0x71, 0x63, 0x6f, 0x6e, 0x73,
  0x74, 0x35, 0x00, 0x00, 0x04, 0x00, 0x00, 0x00, 0x20, 0x00, 0x00, 0x00,
  0x01, 0x00, 0x00, 0x00, 0x03, 0x00, 0x00, 0x00, 0x03, 0x00, 0x00, 0x00,
  0x5a, 0xf6, 0xff, 0xff, 0x00, 0x00, 0x00, 0x01, 0x14, 0x00, 0x00, 0x00,
  0xa4, 0x01, 0x00, 0x00, 0x08, 0x00, 0x00, 0x00, 0x00, 0x00, 0x00, 0x02,
  0xb0, 0x01, 0x00, 0x00, 0xdc, 0xf5, 0xff, 0xff, 0x08, 0x00, 0x00, 0x00,
  0x08, 0x01, 0x00, 0x00, 0x20, 0x00, 0x00, 0x00, 0x00, 0x00, 0x00, 0x00,
  0x00, 0x00, 0x00, 0x00, 0x00, 0x00, 0x00, 0x00, 0x00, 0x00, 0x00, 0x00,
  0x00, 0x00, 0x00, 0x00, 0x00, 0x00, 0x00, 0x00, 0x00, 0x00, 0x00, 0x00,
  0x00, 0x00, 0x00, 0x00, 0x00, 0x00, 0x00, 0x00, 0x00, 0x00, 0x00, 0x00,
  0x00, 0x00, 0x00, 0x00, 0x00, 0x00, 0x00, 0x00, 0x00, 0x00, 0x00, 0x00,
  0x00, 0x00, 0x00, 0x00, 0x00, 0x00, 0x00, 0x00, 0x00, 0x00, 0x00, 0x00,
  0x00, 0x00, 0x00, 0x00, 0x00, 0x00, 0x00, 0x00, 0x00, 0x00, 0x00, 0x00,
  0x00, 0x00, 0x00, 0x00, 0x00, 0x00, 0x00, 0x00, 0x00, 0x00, 0x00, 0x00,
  0x00, 0x00, 0x00, 0x00, 0x00, 0x00, 0x00, 0x00, 0x00, 0x00, 0x00, 0x00,
  0x00, 0x00, 0x00, 0x00, 0x00, 0x00, 0x00, 0x00, 0x00, 0x00, 0x00, 0x00,
  0x00, 0x00, 0x00, 0x00, 0x00, 0x00, 0x00, 0x00, 0x00, 0x00, 0x00, 0x00,
  0x00, 0x00, 0x00, 0x00, 0x00, 0x00, 0x00, 0x00, 0x00, 0x00, 0x00, 0x00,
  0x00, 0x00, 0x00, 0x00, 0x00, 0x00, 0x00, 0x00, 0x00, 0x00, 0x00, 0x00,
  0x00, 0x00, 0x00, 0x00, 0x00, 0x00, 0x00, 0x00, 0x00, 0x00, 0x00, 0x00,
  0x00, 0x00, 0x00, 0x00, 0x00, 0x00, 0x00, 0x00, 0x00, 0x00, 0x00, 0x00,
  0x00, 0x00, 0x00, 0x00, 0x00, 0x00, 0x00, 0x00, 0x00, 0x00, 0x00, 0x00,
  0x00, 0x00, 0x00, 0x00, 0x00, 0x00, 0x00, 0x00, 0x00, 0x00, 0x00, 0x00,
  0x00, 0x00, 0x00, 0x00, 0x00, 0x00, 0x00, 0x00, 0x00, 0x00, 0x00, 0x00,
  0x00, 0x00, 0x00, 0x00, 0x00, 0x00, 0x00, 0x00, 0x00, 0x00, 0x00, 0x00,
  0x00, 0x00, 0x00, 0x00, 0x00, 0x00, 0x00, 0x00, 0x00, 0x00, 0x00, 0x00,
  0x00, 0x00, 0x00, 0x00, 0x00, 0x00, 0x00, 0x00, 0x00, 0x00, 0x00, 0x00,
  0x00, 0x00, 0x00, 0x00, 0x00, 0x00, 0x00, 0x00, 0x00, 0x00, 0x00, 0x00,
  0x20, 0x00, 0x00, 0x00, 0xaa, 0x67, 0xca, 0x37, 0xab, 0x67, 0x12, 0x38,
  0x85, 0x73, 0xa5, 0x37, 0xa9, 0x64, 0xe1, 0x37, 0x92, 0x66, 0xfe, 0x37,
  0x30, 0x9a, 0x16, 0x38, 0x57, 0xf0, 0xf5, 0x37, 0xd3, 0x9d, 0x13, 0x38,
  0x97, 0x0f, 0x32, 0x38, 0x38, 0x38, 0xd9, 0x37, 0xe3, 0xc8, 0xd1, 0x37,
  0x79, 0x11, 0xdb, 0x37, 0x86, 0x98, 0x0c, 0x38, 0x10, 0xc1, 0xf7, 0x37,
  0x77, 0x62, 0xeb, 0x37, 0xe1, 0x06, 0x05, 0x38, 0x57, 0xeb, 0xd4, 0x37,
  0x22, 0x1f, 0xd1, 0x37, 0xfd, 0x2d, 0xcb, 0x37, 0x0d, 0x00, 0xed, 0x37,
  0xa0, 0xad, 0x0c, 0x38, 0x59, 0x36, 0x0b, 0x38, 0x21, 0x03, 0xbd, 0x37,
  0xf5, 0x9f, 0xd8, 0x37, 0x2f, 0xb8, 0xcb, 0x37, 0xc2, 0x4e, 0xd2, 0x37,
  0x8f, 0xeb, 0x16, 0x38, 0x19, 0x47, 0x08, 0x38, 0x41, 0x02, 0x38, 0x38,
  0x82, 0x2b, 0x18, 0x38, 0xcf, 0x23, 0x0e, 0x38, 0x70, 0x8e, 0xd7, 0x37,
  0x12, 0x00, 0x00, 0x00, 0x74, 0x66, 0x6c, 0x2e, 0x70, 0x73, 0x65, 0x75,
  0x64, 0x6f, 0x5f, 0x71, 0x63, 0x6f, 0x6e, 0x73, 0x74, 0x34, 0x00, 0x00,
  0x01, 0x00, 0x00, 0x00, 0x20, 0x00, 0x00, 0x00, 0x2a, 0xf8, 0xff, 0xff,
  0x00, 0x00, 0x00, 0x01, 0x14, 0x00, 0x00, 0x00, 0x28, 0x03, 0x00, 0x00,
  0x07, 0x00, 0x00, 0x00, 0x00, 0x00, 0x00, 0x09, 0x34, 0x03, 0x00, 0x00,
  0xac, 0xf7, 0xff, 0xff, 0x08, 0x00, 0x00, 0x00, 0x0c, 0x02, 0x00, 0x00,
  0x40, 0x00, 0x00, 0x00, 0x00, 0x00, 0x00, 0x00, 0x00, 0x00, 0x00, 0x00,
  0x00, 0x00, 0x00, 0x00, 0x00, 0x00, 0x00, 0x00, 0x00, 0x00, 0x00, 0x00,
  0x00, 0x00, 0x00, 0x00, 0x00, 0x00, 0x00, 0x00, 0x00, 0x00, 0x00, 0x00,
  0x00, 0x00, 0x00, 0x00, 0x00, 0x00, 0x00, 0x00, 0x00, 0x00, 0x00, 0x00,
  0x00, 0x00, 0x00, 0x00, 0x00, 0x00, 0x00, 0x00, 0x00, 0x00, 0x00, 0x00,
  0x00, 0x00, 0x00, 0x00, 0x00, 0x00, 0x00, 0x00, 0x00, 0x00, 0x00, 0x00,
  0x00, 0x00, 0x00, 0x00, 0x00, 0x00, 0x00, 0x00, 0x00, 0x00, 0x00, 0x00,
  0x00, 0x00, 0x00, 0x00, 0x00, 0x00, 0x00, 0x00, 0x00, 0x00, 0x00, 0x00,
  0x00, 0x00, 0x00, 0x00, 0x00, 0x00, 0x00, 0x00, 0x00, 0x00, 0x00, 0x00,
  0x00, 0x00, 0x00, 0x00, 0x00, 0x00, 0x00, 0x00, 0x00, 0x00, 0x00, 0x00,
  0x00, 0x00, 0x00, 0x00, 0x00, 0x00, 0x00, 0x00, 0x00, 0x00, 0x00, 0x00,
  0x00, 0x00, 0x00, 0x00, 0x00, 0x00, 0x00, 0x00, 0x00, 0x00, 0x00, 0x00,
  0x00, 0x00, 0x00, 0x00, 0x00, 0x00, 0x00, 0x00, 0x00, 0x00, 0x00, 0x00,
  0x00, 0x00, 0x00, 0x00, 0x00, 0x00, 0x00, 0x00, 0x00, 0x00, 0x00, 0x00,
  0x00, 0x00, 0x00, 0x00, 0x00, 0x00, 0x00, 0x00, 0x00, 0x00, 0x00, 0x00,
  0x00, 0x00, 0x00, 0x00, 0x00, 0x00, 0x00, 0x00, 0x00, 0x00, 0x00, 0x00,
  0x00, 0x00, 0x00, 0x00, 0x00, 0x00, 0x00, 0x00, 0x00, 0x00, 0x00, 0x00,
  0x00, 0x00, 0x00, 0x00, 0x00, 0x00, 0x00, 0x00, 0x00, 0x00, 0x00, 0x00,
  0x00, 0x00, 0x00, 0x00, 0x00, 0x00, 0x00, 0x00, 0x00, 0x00, 0x00, 0x00,
  0x00, 0x00, 0x00, 0x00, 0x00, 0x00, 0x00, 0x00, 0x00, 0x00, 0x00, 0x00,
  0x00, 0x00, 0x00, 0x00, 0x00, 0x00, 0x00, 0x00, 0x00, 0x00, 0x00, 0x00,
  0x00, 0x00, 0x00, 0x00, 0x00, 0x00, 0x00, 0x00, 0x00, 0x00, 0x00, 0x00,
  0x00, 0x00, 0x00, 0x00, 0x00, 0x00, 0x00, 0x00, 0x00, 0x00, 0x00, 0x00,
  0x00, 0x00, 0x00, 0x00, 0x00, 0x00, 0x00, 0x00, 0x00, 0x00, 0x00, 0x00,
  0x00, 0x00, 0x00, 0x00, 0x00, 0x00, 0x00, 0x00, 0x00, 0x00, 0x00, 0x00,
  0x00, 0x00, 0x00, 0x00, 0x00, 0x00, 0x00, 0x00, 0x00, 0x00, 0x00, 0x00,
  0x00, 0x00, 0x00, 0x00, 0x00, 0x00, 0x00, 0x00, 0x00, 0x00, 0x00, 0x00,
  0x00, 0x00, 0x00, 0x00, 0x00, 0x00, 0x00, 0x00, 0x00, 0x00, 0x00, 0x00,
  0x00, 0x00, 0x00, 0x00, 0x00, 0x00, 0x00, 0x00, 0x00, 0x00, 0x00, 0x00,
  0x00, 0x00, 0x00, 0x00, 0x00, 0x00, 0x00, 0x00, 0x00, 0x00, 0x00, 0x00,
  0x00, 0x00, 0x00, 0x00, 0x00, 0x00, 0x00, 0x00, 0x00, 0x00, 0x00, 0x00,
  0x00, 0x00, 0x00, 0x00, 0x00, 0x00, 0x00, 0x00, 0x00, 0x00, 0x00, 0x00,
  0x00, 0x00, 0x00, 0x00, 0x00, 0x00, 0x00, 0x00, 0x00, 0x00, 0x00, 0x00,
  0x00, 0x00, 0x00, 0x00, 0x00, 0x00, 0x00, 0x00, 0x00, 0x00, 0x00, 0x00,
  0x00, 0x00, 0x00, 0x00, 0x00, 0x00, 0x00, 0x00, 0x00, 0x00, 0x00, 0x00,
  0x00, 0x00, 0x00, 0x00, 0x00, 0x00, 0x00, 0x00, 0x00, 0x00, 0x00, 0x00,
  0x00, 0x00, 0x00, 0x00, 0x00, 0x00, 0x00, 0x00, 0x00, 0x00, 0x00, 0x00,
  0x00, 0x00, 0x00, 0x00, 0x00, 0x00, 0x00, 0x00, 0x00, 0x00, 0x00, 0x00,
  0x00, 0x00, 0x00, 0x00, 0x00, 0x00, 0x00, 0x00, 0x00, 0x00, 0x00, 0x00,
  0x00, 0x00, 0x00, 0x00, 0x00, 0x00, 0x00, 0x00, 0x00, 0x00, 0x00, 0x00,
  0x00, 0x00, 0x00, 0x00, 0x00, 0x00, 0x00, 0x00, 0x00, 0x00, 0x00, 0x00,
  0x00, 0x00, 0x00, 0x00, 0x00, 0x00, 0x00, 0x00, 0x00, 0x00, 0x00, 0x00,
  0x00, 0x00, 0x00, 0x00, 0x00, 0x00, 0x00, 0x00, 0x00, 0x00, 0x00, 0x00,
  0x00, 0x00, 0x00, 0x00, 0x40, 0x00, 0x00, 0x00, 0xca, 0x6e, 0x3b, 0x3b,
  0x71, 0xf7, 0x3e, 0x3b, 0xdc, 0x40, 0x04, 0x3b, 0x31, 0xd8, 0x08, 0x3b,
  0x8a, 0xfe, 0x21, 0x3b, 0x1e, 0xc0, 0x2a, 0x3b, 0x23, 0x23, 0x29, 0x3b,
  0x03, 0x6b, 0x53, 0x3b, 0x70, 0xa8, 0x21, 0x3b, 0xda, 0xd7, 0x1b, 0x3b,
  0xf5, 0xd3, 0x23, 0x3b, 0xba, 0xa2, 0x46, 0x3b, 0x6a, 0x3f, 0x44, 0x3b,
  0xc3, 0xdf, 0x2f, 0x3b, 0xbd, 0xc8, 0x33, 0x3b, 0x96, 0x18, 0x66, 0x3b,
  0x37, 0xae, 0x47, 0x3b, 0x9a, 0xef, 0x3e, 0x3b, 0xe6, 0x11, 0x54, 0x3b,
  0x11, 0x70, 0x3b, 0x3b, 0x07, 0xe4, 0x11, 0x3b, 0x1e, 0x49, 0x20, 0x3b,
  0x02, 0xd3, 0x12, 0x3b, 0x01, 0xc5, 0x18, 0x3b, 0x13, 0x29, 0x11, 0x3b,
  0xee, 0xb9, 0x02, 0x3b, 0xbe, 0x12, 0x19, 0x3b, 0x89, 0x71, 0x1f, 0x3b,
  0x82, 0x94, 0x0d, 0x3b, 0xf9, 0x9f, 0x10, 0x3b, 0x02, 0x05, 0x2e, 0x3b,
  0x58, 0x24, 0x16, 0x3b, 0x75, 0x9b, 0x26, 0x3b, 0xc9, 0x25, 0xff, 0x3a,
  0xb0, 0xe1, 0x04, 0x3b, 0xe1, 0x9f, 0x41, 0x3b, 0x8c, 0x09, 0x21, 0x3b,
  0xd0, 0x7d, 0x25, 0x3b, 0xaf, 0xe3, 0x6f, 0x3b, 0x12, 0xbd, 0x44, 0x3b,
  0x6a, 0x1b, 0x19, 0x3b, 0xd9, 0x84, 0x14, 0x3b, 0x96, 0xff, 0x11, 0x3b,
  0x31, 0xe6, 0x2f, 0x3b, 0x23, 0x51, 0x43, 0x3b, 0xdb, 0x37, 0x28, 0x3b,
  0x9f, 0xb8, 0x27, 0x3b, 0x54, 0x41, 0x0e, 0x3b, 0xcf, 0xfd, 0x09, 0x3b,
  0x2d, 0x55, 0x36, 0x3b, 0x1c, 0xa9, 0x48, 0x3b, 0x6d, 0x1e, 0x04, 0x3b,
  0xc5, 0xb2, 0x1d, 0x3b, 0x5d, 0xad, 0x1e, 0x3b, 0x14, 0x04, 0x3d, 0x3b,
  0x0c, 0xef, 0x41, 0x3b, 0x72, 0x25, 0x02, 0x3b, 0xff, 0x61, 0x0f, 0x3b,
  0x3a, 0x63, 0x03, 0x3b, 0x97, 0x1e, 0x4a, 0x3b, 0x80, 0x8a, 0x35, 0x3b,
  0x56, 0x6a, 0x69, 0x3b, 0x9c, 0x9e, 0x22, 0x3b, 0x98, 0x06, 0x1c, 0x3b,
  0x12, 0x00, 0x00, 0x00, 0x74, 0x66, 0x6c, 0x2e, 0x70, 0x73, 0x65, 0x75,
  0x64, 0x6f, 0x5f, 0x71, 0x63, 0x6f, 0x6e, 0x73, 0x74, 0x33, 0x00, 0x00,
  0x02, 0x00, 0x00, 0x00, 0x40, 0x00, 0x00, 0x00, 0x20, 0x00, 0x00, 0x00,
  0x82, 0xfb, 0xff, 0xff, 0x00, 0x00, 0x00, 0x01, 0x14, 0x00, 0x00, 0x00,
  0x24, 0x03, 0x00, 0x00, 0x06, 0x00, 0x00, 0x00, 0x00, 0x00, 0x00, 0x02,
  0x30, 0x03, 0x00, 0x00, 0x04, 0xfb, 0xff, 0xff, 0x08, 0x00, 0x00, 0x00,
  0x08, 0x02, 0x00, 0x00, 0x40, 0x00, 0x00, 0x00, 0x00, 0x00, 0x00, 0x00,
  0x00, 0x00, 0x00, 0x00, 0x00, 0x00, 0x00, 0x00, 0x00, 0x00, 0x00, 0x00,
  0x00, 0x00, 0x00, 0x00, 0x00, 0x00, 0x00, 0x00, 0x00, 0x00, 0x00, 0x00,
  0x00, 0x00, 0x00, 0x00, 0x00, 0x00, 0x00, 0x00, 0x00, 0x00, 0x00, 0x00,
  0x00, 0x00, 0x00, 0x00, 0x00, 0x00, 0x00, 0x00, 0x00, 0x00, 0x00, 0x00,
  0x00, 0x00, 0x00, 0x00, 0x00, 0x00, 0x00, 0x00, 0x00, 0x00, 0x00, 0x00,
  0x00, 0x00, 0x00, 0x00, 0x00, 0x00, 0x00, 0x00, 0x00, 0x00, 0x00, 0x00,
  0x00, 0x00, 0x00, 0x00, 0x00, 0x00, 0x00, 0x00, 0x00, 0x00, 0x00, 0x00,
  0x00, 0x00, 0x00, 0x00, 0x00, 0x00, 0x00, 0x00, 0x00, 0x00, 0x00, 0x00,
  0x00, 0x00, 0x00, 0x00, 0x00, 0x00, 0x00, 0x00, 0x00, 0x00, 0x00, 0x00,
  0x00, 0x00, 0x00, 0x00, 0x00, 0x00, 0x00, 0x00, 0x00, 0x00, 0x00, 0x00,
  0x00, 0x00, 0x00, 0x00, 0x00, 0x00, 0x00, 0x00, 0x00, 0x00, 0x00, 0x00,
  0x00, 0x00, 0x00, 0x00, 0x00, 0x00, 0x00, 0x00, 0x00, 0x00, 0x00, 0x00,
  0x00, 0x00, 0x00, 0x00, 0x00, 0x00, 0x00, 0x00, 0x00, 0x00, 0x00, 0x00,
  0x00, 0x00, 0x00, 0x00, 0x00, 0x00, 0x00, 0x00, 0x00, 0x00, 0x00, 0x00,
  0x00, 0x00, 0x00, 0x00, 0x00, 0x00, 0x00, 0x00, 0x00, 0x00, 0x00, 0x00,
  0x00, 0x00, 0x00, 0x00, 0x00, 0x00, 0x00, 0x00, 0x00, 0x00, 0x00, 0x00,
  0x00, 0x00, 0x00, 0x00, 0x00, 0x00, 0x00, 0x00, 0x00, 0x00, 0x00, 0x00,
  0x00, 0x00, 0x00, 0x00, 0x00, 0x00, 0x00, 0x00, 0x00, 0x00, 0x00, 0x00,
  0x00, 0x00, 0x00, 0x00, 0x00, 0x00, 0x00, 0x00, 0x00, 0x00, 0x00, 0x00,
  0x00, 0x00, 0x00, 0x00, 0x00, 0x00, 0x00, 0x00, 0x00, 0x00, 0x00, 0x00,
  0x00, 0x00, 0x00, 0x00, 0x00, 0x00, 0x00, 0x00, 0x00, 0x00, 0x00, 0x00,
  0x00, 0x00, 0x00, 0x00, 0x00, 0x00, 0x00, 0x00, 0x00, 0x00, 0x00, 0x00,
  0x00, 0x00, 0x00, 0x00, 0x00, 0x00, 0x00, 0x00, 0x00, 0x00, 0x00, 0x00,
  0x00, 0x00, 0x00, 0x00, 0x00, 0x00, 0x00, 0x00, 0x00, 0x00, 0x00, 0x00,
  0x00, 0x00, 0x00, 0x00, 0x00, 0x00, 0x00, 0x00, 0x00, 0x00, 0x00, 0x00,
  0x00, 0x00, 0x00, 0x00, 0x00, 0x00, 0x00, 0x00, 0x00, 0x00, 0x00, 0x00,
  0x00, 0x00, 0x00, 0x00, 0x00, 0x00, 0x00, 0x00, 0x00, 0x00, 0x00, 0x00,
  0x00, 0x00, 0x00, 0x00, 0x00, 0x00, 0x00, 0x00, 0x00, 0x00, 0x00, 0x00,
  0x00, 0x00, 0x00, 0x00, 0x00, 0x00, 0x00, 0x00, 0x00, 0x00, 0x00, 0x00,
  0x00, 0x00, 0x00, 0x00, 0x00, 0x00, 0x00, 0x00, 0x00, 0x00, 0x00, 0x00,
  0x00, 0x00, 0x00, 0x00, 0x00, 0x00, 0x00, 0x00, 0x00, 0x00, 0x00, 0x00,
  0x00, 0x00, 0x00, 0x00, 0x00, 0x00, 0x00, 0x00, 0x00, 0x00, 0x00, 0x00,
  0x00, 0x00, 0x00, 0x00, 0x00, 0x00, 0x00, 0x00, 0x00, 0x00, 0x00, 0x00,
  0x00, 0x00, 0x00, 0x00, 0x00, 0x00, 0x00, 0x00, 0x00, 0x00, 0x00, 0x00,
  0x00, 0x00, 0x00, 0x00, 0x00, 0x00, 0x00, 0x00, 0x00, 0x00, 0x00, 0x00,
  0x00, 0x00, 0x00, 0x00, 0x00, 0x00, 0x00, 0x00, 0x00, 0x00, 0x00, 0x00,
  0x00, 0x00, 0x00, 0x00, 0x00, 0x00, 0x00, 0x00, 0x00, 0x00, 0x00, 0x00,
  0x00, 0x00, 0x00, 0x00, 0x00, 0x00, 0x00, 0x00, 0x00, 0x00, 0x00, 0x00,
  0x00, 0x00, 0x00, 0x00, 0x00, 0x00, 0x00, 0x00, 0x00, 0x00, 0x00, 0x00,
  0x00, 0x00, 0x00, 0x00, 0x00, 0x00, 0x00, 0x00, 0x00, 0x00, 0x00, 0x00,
  0x00, 0x00, 0x00, 0x00, 0x00, 0x00, 0x00, 0x00, 0x00, 0x00, 0x00, 0x00,
  0x00, 0x00, 0x00, 0x00, 0x00, 0x00, 0x00, 0x00, 0x00, 0x00, 0x00, 0x00,
  0x00, 0x00, 0x00, 0x00, 0x40, 0x00, 0x00, 0x00, 0xe7, 0x48, 0x6a, 0x37,
  0xb0, 0xb3, 0x6e, 0x37, 0xf5, 0x4f, 0x25, 0x37, 0x15, 0x0d, 0x2b, 0x37,
  0xce, 0x7c, 0x4a, 0x37, 0xb4, 0x6e, 0x55, 0x37, 0x7e, 0x6a, 0x53, 0x37,
  0xfd, 0x21, 0x84, 0x37, 0x2e, 0x11, 0x4a, 0x37, 0x7f, 0xcc, 0x42, 0x37,
  0x90, 0xc7, 0x4c, 0x37, 0xbb, 0x49, 0x78, 0x37, 0x9c, 0x4d, 0x75, 0x37,
  0x37, 0xd6, 0x5b, 0x37, 0x67, 0xb9, 0x60, 0x37, 0x65, 0xce, 0x8f, 0x37,
  0x15, 0x98, 0x79, 0x37, 0xe3, 0xa9, 0x6e, 0x37, 0x4a, 0x8a, 0x84, 0x37,
  0x80, 0x4a, 0x6a, 0x37, 0xcd, 0x5b, 0x36, 0x37, 0x0b, 0x5a, 0x48, 0x37,
  0x85, 0x86, 0x37, 0x37, 0xf7, 0xf4, 0x3e, 0x37, 0x1e, 0x72, 0x35, 0x37,
  0x4f, 0x67, 0x23, 0x37, 0x22, 0x56, 0x3f, 0x37, 0x92, 0x4c, 0x47, 0x37,
  0x70, 0xf8, 0x30, 0x37, 0xbe, 0xc6, 0x34, 0x37, 0xca, 0x84, 0x59, 0x37,
  0x29, 0xac, 0x3b, 0x37, 0xea, 0x40, 0x50, 0x37, 0x8a, 0x76, 0x1f, 0x37,
  0xfc, 0x18, 0x26, 0x37, 0x36, 0x06, 0x72, 0x37, 0x93, 0x4a, 0x49, 0x37,
  0xde, 0xdb, 0x4e, 0x37, 0x4a, 0xed, 0x95, 0x37, 0xad, 0xea, 0x75, 0x37,
  0xf9, 0x60, 0x3f, 0x37, 0xce, 0xa4, 0x39, 0x37, 0x40, 0x7e, 0x36, 0x37,
  0x41, 0xde, 0x5b, 0x37, 0xc5, 0x23, 0x74, 0x37, 0x66, 0x44, 0x52, 0x37,
  0x5c, 0xa5, 0x51, 0x37, 0x75, 0xd0, 0x31, 0x37, 0x18, 0x7c, 0x2c, 0x37,
  0xee, 0xe8, 0x63, 0x37, 0xb1, 0xd1, 0x7a, 0x37, 0xea, 0x24, 0x25, 0x37,
  0x21, 0x1e, 0x45, 0x37, 0x5d, 0x57, 0x46, 0x37, 0x80, 0x43, 0x6c, 0x37,
  0x2b, 0x69, 0x72, 0x37, 0xb5, 0xad, 0x22, 0x37, 0x48, 0x39, 0x33, 0x37,
  0xec, 0x3a, 0x24, 0x37, 0x87, 0xa4, 0x7c, 0x37, 0x97, 0xeb, 0x62, 0x37,
  0x79, 0xe1, 0x91, 0x37, 0xe3, 0x44, 0x4b, 0x37, 0xec, 0x06, 0x43, 0x37,
  0x12, 0x00, 0x00, 0x00, 0x74, 0x66, 0x6c, 0x2e, 0x70, 0x73, 0x65, 0x75,
  0x64, 0x6f, 0x5f, 0x71, 0x63, 0x6f, 0x6e, 0x73, 0x74, 0x32, 0x00, 0x00,
  0x01, 0x00, 0x00, 0x00, 0x40, 0x00, 0x00, 0x00, 0xd2, 0xfe, 0xff, 0xff,
  0x00, 0x00, 0x00, 0x01, 0x14, 0x00, 0x00, 0x00, 0x48, 0x00, 0x00, 0x00,
  0x05, 0x00, 0x00, 0x00, 0x00, 0x00, 0x00, 0x09, 0x54, 0x00, 0x00, 0x00,
  0x54, 0xfe, 0xff, 0xff, 0x08, 0x00, 0x00, 0x00, 0x20, 0x00, 0x00, 0x00,
  0x03, 0x00, 0x00, 0x00, 0x00, 0x00, 0x00, 0x00, 0x00, 0x00, 0x00, 0x00,
  0x00, 0x00, 0x00, 0x00, 0x00, 0x00, 0x00, 0x00, 0x00, 0x00, 0x00, 0x00,
  0x00, 0x00, 0x00, 0x00, 0x03, 0x00, 0x00, 0x00, 0x36, 0x3a, 0x4f, 0x3b,
  0xe8, 0xd1, 0x74, 0x3b, 0x52, 0x8e, 0x63, 0x3b, 0x12, 0x00, 0x00, 0x00,
  0x74, 0x66, 0x6c, 0x2e, 0x70, 0x73, 0x65, 0x75, 0x64, 0x6f, 0x5f, 0x71,
  0x63, 0x6f, 0x6e, 0x73, 0x74, 0x31, 0x00, 0x00, 0x02, 0x00, 0x00, 0x00,
  0x03, 0x00, 0x00, 0x00, 0x40, 0x00, 0x00, 0x00, 0x4a, 0xff, 0xff, 0xff,
  0x00, 0x00, 0x00, 0x01, 0x14, 0x00, 0x00, 0x00, 0x4c, 0x00, 0x00, 0x00,
  0x04, 0x00, 0x00, 0x00, 0x00, 0x00, 0x00, 0x02, 0x58, 0x00, 0x00, 0x00,
  0xcc, 0xfe, 0xff, 0xff, 0x08, 0x00, 0x00, 0x00, 0x24, 0x00, 0x00, 0x00,
  0x03, 0x00, 0x00, 0x00, 0x00, 0x00, 0x00, 0x00, 0x00, 0x00, 0x00, 0x00,
  0x00, 0x00, 0x00, 0x00, 0x00, 0x00, 0x00, 0x00, 0x00, 0x00, 0x00, 0x00,
  0x00, 0x00, 0x00, 0x00, 0x00, 0x00, 0x00, 0x00, 0x03, 0x00, 0x00, 0x00,
  0x43, 0x5b, 0x1a, 0x37, 0x9e, 0x5b, 0x36, 0x37, 0x9f, 0x7f, 0x29, 0x37,
  0x11, 0x00, 0x00, 0x00, 0x74, 0x66, 0x6c, 0x2e, 0x70, 0x73, 0x65, 0x75,
  0x64, 0x6f, 0x5f, 0x71, 0x63, 0x6f, 0x6e, 0x73, 0x74, 0x00, 0x00, 0x00,
  0x01, 0x00, 0x00, 0x00, 0x03, 0x00, 0x00, 0x00, 0xc2, 0xff, 0xff, 0xff,
  0x00, 0x00, 0x00, 0x01, 0x14, 0x00, 0x00, 0x00, 0x14, 0x00, 0x00, 0x00,
  0x03, 0x00, 0x00, 0x00, 0x00, 0x00, 0x00, 0x02, 0x1c, 0x00, 0x00, 0x00,
  0xac, 0xff, 0xff, 0xff, 0x0f, 0x00, 0x00, 0x00, 0x61, 0x72, 0x69, 0x74,
  0x68, 0x2e, 0x63, 0x6f, 0x6e, 0x73, 0x74, 0x61, 0x6e, 0x74, 0x31, 0x00,
  0x01, 0x00, 0x00, 0x00, 0x02, 0x00, 0x00, 0x00, 0x00, 0x00, 0x16, 0x00,
  0x1c, 0x00, 0x18, 0x00, 0x17, 0x00, 0x10, 0x00, 0x0c, 0x00, 0x08, 0x00,
  0x00, 0x00, 0x00, 0x00, 0x00, 0x00, 0x07, 0x00, 0x16, 0x00, 0x00, 0x00,
  0x00, 0x00, 0x00, 0x01, 0x18, 0x00, 0x00, 0x00, 0x18, 0x00, 0x00, 0x00,
  0x02, 0x00, 0x00, 0x00, 0x00, 0x00, 0x00, 0x02, 0x20, 0x00, 0x00, 0x00,
  0x04, 0x00, 0x04, 0x00, 0x04, 0x00, 0x00, 0x00, 0x0e, 0x00, 0x00, 0x00,
  0x61, 0x72, 0x69, 0x74, 0x68, 0x2e, 0x63, 0x6f, 0x6e, 0x73, 0x74, 0x61,
  0x6e, 0x74, 0x00, 0x00, 0x00, 0x00, 0x00, 0x00, 0x00, 0x00, 0x16, 0x00,
  0x20, 0x00, 0x1c, 0x00, 0x1b, 0x00, 0x14, 0x00, 0x10, 0x00, 0x0c, 0x00,
  0x00, 0x00, 0x00, 0x00, 0x08, 0x00, 0x07, 0x00, 0x16, 0x00, 0x00, 0x00,
  0x00, 0x00, 0x00, 0x01, 0x18, 0x00, 0x00, 0x00, 0x30, 0x00, 0x00, 0x00,
  0x50, 0x00, 0x00, 0x00, 0x01, 0x00, 0x00, 0x00, 0x00, 0x00, 0x00, 0x09,
  0x6c, 0x00, 0x00, 0x00, 0x03, 0x00, 0x00, 0x00, 0xff, 0xff, 0xff, 0xff,
  0x03, 0x00, 0x00, 0x00, 0x03, 0x00, 0x00, 0x00, 0x0c, 0x00, 0x0c, 0x00,
  0x00, 0x00, 0x00, 0x00, 0x08, 0x00, 0x04, 0x00, 0x0c, 0x00, 0x00, 0x00,
  0x08, 0x00, 0x00, 0x00, 0x14, 0x00, 0x00, 0x00, 0x01, 0x00, 0x00, 0x00,
  0xff, 0xff, 0xff, 0xff, 0xff, 0xff, 0xff, 0xff, 0x00, 0x00, 0x00, 0x00,
  0x01, 0x00, 0x00, 0x00, 0x53, 0x2d, 0x83, 0x3c, 0x21, 0x00, 0x00, 0x00,
  0x73, 0x65, 0x72, 0x76, 0x69, 0x6e, 0x67, 0x5f, 0x64, 0x65, 0x66, 0x61,
  0x75, 0x6c, 0x74, 0x5f, 0x6b, 0x65, 0x72, 0x61, 0x73, 0x5f, 0x74, 0x65,
  0x6e, 0x73, 0x6f, 0x72, 0x5f, 0x32, 0x31, 0x3a, 0x30, 0x00, 0x00, 0x00,
  0x03, 0x00, 0x00, 0x00, 0x01, 0x00, 0x00, 0x00, 0x03, 0x00, 0x00, 0x00,
  0x03, 0x00, 0x00, 0x00, 0x04, 0x00, 0x00, 0x00, 0x54, 0x00, 0x00, 0x00,
  0x34, 0x00, 0x00, 0x00, 0x18, 0x00, 0x00, 0x00, 0x04, 0x00, 0x00, 0x00,
  0xe4, 0xff, 0xff, 0xff, 0x09, 0x00, 0x00, 0x00, 0x04, 0x00, 0x00, 0x00,
  0x00, 0x00, 0x00, 0x09, 0xd8, 0xff, 0xff, 0xff, 0x16, 0x00, 0x00, 0x00,
  0x00, 0x00, 0x00, 0x16, 0x0c, 0x00, 0x10, 0x00, 0x0f, 0x00, 0x00, 0x00,
  0x08, 0x00, 0x04, 0x00, 0x0c, 0x00, 0x00, 0x00, 0x03, 0x00, 0x00, 0x00,
  0x03, 0x00, 0x00, 0x00, 0x00, 0x00, 0x00, 0x03, 0x0c, 0x00, 0x0c, 0x00,
  0x0b, 0x00, 0x00, 0x00, 0x00, 0x00, 0x04, 0x00, 0x0c, 0x00, 0x00, 0x00,
  0x46, 0x00, 0x00, 0x00, 0x00, 0x00, 0x00, 0x46
};

#endif // NHUNG_MODEL_H
